<unk>
<s>
</s>
[PAD]
[UNK]
[CLS]
[SEP]
[MASK]
,
의
에
는
하
.
이
을
를
다
상
1
한
가
-
제
으
수
있
되
2
)
은
고
으로
상기
도
(
된
로
기
어
에서
여
시
적
및
3
전
와
구
과
사
또
인
지
발
것
들
형
4
본
위
실
a
대
유
게
할
단
t
내
방
##in
일
5
포
중
한다
또는
정
그
m
C
부
##er
화
연
따
##on
분
아
조
성
보
면
0
공
발명
사용
바
개
용
경
포함
결
나
설
:
특
된다
##at
c
##he
통
비
s
자
##re
형성
6
스
실시
##장치
동
예
같
모
배
S
##en
주
p
H
였
서
관
A
반
표
될
함
도록
;
며
항
등
7
10
o
디
소
각
메
T
회
프
##al
P
따라
어서
의해
%
##부터
the
R
/
M
##레이
##or
실시예
##ed
구성
##an
8
해
경우
선
N
b
##ion
신
변
d
세
데
후
##it
방법
영
나타
장치
생
저
I
##ic
알
차
##es
20
않
또한
정보
##is
D
##이터
단계
##ro
f
접
9
이용
원
w
측
피
마
거
시키
an
입
때
##합물
층
미
라
of
물
제어
필
작
내지
위한
in
##ar
외
었
로부터
감
이상
대한
##ing
데이터
제조
따른
연결
증
하나
##ol
##ct
특징
같이
g
위치
제공
L
B
##et
바람
##처리
플
F
##as
재
진
오
더
바람직
계
안
##이드
##이트
만
다른
광
도시
프로
파
가능
결합
복
양
and
종
추
요
온
##le
갖
n
치
신호
사이
패
##스템
트
위해
##이스
출
설치
약
산
회전
"
각각
설명
시간
##ent
고정
열
카
장
평
코
E
통해
효
##폴리
발생
간
검
O
교
이루
시스템
선택
보다
화합물
상태
]
확
최
구조
폴리
°
무
크
압
혼
처리
##id
문
절
G
방향
음
이동
e
-(
높
노
매
##el
으로써
로서
##ig
직
리
반응
##ation
결과
=
두
영역
12
투
구비
re
내부
이루어
클
식
탄
##정보
측정
으며
타
생성
공급
액
##us
금
이러
온도
표시
거나
활
판
참
불
냉
부분
임
저장
V
l
지지
11
따라서
환
질
수행
가지
입력
출력
초
기술
페
강
건
현
기판
점
나타내
블
##om
30
우
첨
형태
h
구동
조성
커
없
##im
'
15
테
중량
##ul
표면
to
다음
목
[
동일
충
수신
##레이트
효과
연구
##리고
레
##스트
50
상부
적어
적어도
메틸
이하
도면
으로부터
##므로
명
200
대해
속
##범위
##부재
##ra
##il
흡
체
필요
조성물
th
얻
즉
##iv
mm
그리고
염
전극
##os
##레임
나타낸
##미노
결정
호
합
100
##ur
때문
##ce
운
배치
복수
+
관한
##ut
분석
시켜
값
##방향
으로서
슬
전송
금속
13
향
참조
채
축
##ch
밀
비교
##센서
외부
기능
디스
19
동안
설정
동작
하부
세포
면서
##un
단말
전자
번
v
의한
##라이
W
유지
첨가
받
일반
공정
##도체
순
U
##od
함유
농
화학
K
증가
제거
토
삽
다양
길
문제
수지
st
여기
돌
송
공기
##클로
물질
당
베
##메틸
전기
완
가스
분리
##ot
통신
범위
아니
##밸브
##um
알킬
##ow
삽입
14
적용
al
검출
~
목적
응
40
con
부재
까
##ab
일부
까지
브
그러
25
방지
특히
##스터
드
활성
for
지만
is
수용
회로
##am
위하
##방법
J
시킨
치환
헤
편
형상
전압
프레임
과정
역
확인
대응
##ter
조절
##비스
버
어느
μ
유기
16
##합체
고안
작동
##if
이미
##st
터
케
변화
##ag
특성
추가
링
의하
는데
다수
트리
별
혼합물
혼합
영상
콘
행
X
관련
컨
는다
성분
##em
아미노
##ect
손
추출
k
기준
접속
이나
걸
pro
용액
##모리
므로
특정
히
존
에틸
감소
센서
모듈
종래
블록
##ly
공간
네
##루오
메모리
##테르
인터
##ure
mg
냉각
많
반도체
서로
##ith
청
시킬
산화
전달
##수단
건조
서열
방식
##신호
벤
서비스
r
접촉
18
존재
배출
볼
패턴
옥
전체
00
셀
자동
기재
상세
차량
소정
The
낮
박
컴
가열
키
크기
측면
암
가장
속도
이루어지
일정
대하
근
부착
압력
##그램
장착
디스플
좌
재료
집
60
##ate
화학식
이루어진
단면
구체
달
말
소자
서버
캐
작용
∼
##위치
됨
##ere
페닐
실리
대상
엔
##프로
##ec
본체
##섬유
##랜지
##톡시
In
밸브
에게
##미드
해당
ml
수단
스트
함께
##크릴
17
##ity
관리
##oc
with
##이어
향상
디스플레이
##ac
예컨
두께
##프트
탄소
학
필름
무선
예컨대
임의
채널
유닛
촉
제어부
##세서
발광
균
Fig
글
작업
롤
압축
as
구현
##에틸
CH
평가
##qu
영향
아세
21
##워크
필터
조건
동시
중심
게이트
##th
폐
##단부
유리
단말기
합성
백
변형
##이프
한편
##페닐
201
변환
요소
심
그러나
et
22
수직
on
입자
길이
24
감지
보호
농도
다이
치료
##우징
했
독
##루오로
정도
전원
잔
가이드
통하
침
##op
##록시
개시
프로그램
이때
조립
티
##ir
돌출
기록
국
코팅
더욱
##바이스
교반
안정
ex
클로
##ad
유전
이미지
디바이스
연장
모든
평균
##NA
이온
}
년
네트
##몸체
규
의미
##res
실험
플라
제한
접착
##트라
착
라인
통상
##이블
판단
##ist
한정
mmol
억
80
흐
%,
Y
be
##이션
성형
급
컴퓨
전류
##스크
x
유입
그룹
##ers
가진
was
##pl
태
##ess
스크
허
##ical
-[
수소
기초
막
조사
##able
시트
전력
##리딘
율
##ri
##너지
##yl
네트워크
com
##act
카르
시험
탈
레이
절연
취
송신
천
하우징
mL
패널
체결
예시
유사
결제
마이
##파수
모두
##세스
##레스
##ated
나타낸다
##ap
모드
았
문제점
##og
단위
##백질
용이
##ment
##est
위해서
23
진행
원자
##ive
##ant
##ell
##ine
##ay
변경
모터
탄성
by
단부
일측
뿐
##up
따르
차이
다는
_
##랜지스터
반사
##ore
요구
웨
내측
줄
억제
제품
##시지
맞
살
res
##라인
##스테르
큰
폭
제작
높이
투여
액정
관통
중간
환경
생산
##산화
Z
용매
##린더
커버
효율
수평
정의
단백질
이송
##으며
중앙
계산
##ver
##ud
특허
that
컴퓨터
승
현재
##rom
인가
실행
몰
주파수
아크릴
플레이트
##디오
홀
촉매
올
그래
90
##알킬
##챔버
섬유
##텐츠
에너지
충전
병
##네이트
##프링
##펌프
70
연료
니
군
##ult
트랜지스터
혈
둘
조정
직접
cid
끼
메시지
시킨다
##ase
분자
통과
##igh
유도
조합
용기
유체
CO
바이
항체
몸체
개발
히드
de
##라이드
인식
##ff
색
논
시켰
적합
관계
여과
최대
경사
수득
베이스
권
us
누
상호
마이크
홈
황
are
##형태
고자
흡수
분산
서브
가공
##부분
CD
at
매우
거리
##상태
휴
Hz
테트라
##렌즈
##페이스
##ip
스테
조작
##iz
스위치
·
청구
총
sh
##이퍼
기반
##ial
내용
실리콘
최소
담
화상
중합체
이후
##av
분야
35
적절
개선
i
개방
째
##티드
##ain
부호
##시도
##and
개구
26
유동
PC
파일
이소
sp
주입
##탱크
액체
##샘플
연속
##ub
제조방법
##eth
간격
광학
보조
번호
외측
ch
강도
정제
차단
사시도
언
용해
##가스
nm
ac
%)
32
##이지
식별
여러
##per
저항
were
상대
모델
샘플
으나
Al
##요소
II
우수
터치
환자
##orm
##프로필
##루미
바닥
##uct
레벨
애
도전
##탄올
칼
경로
골
진공
설계
챔버
##구조
단면도
비트
다시
##튜브
실린더
좋
인터페이스
고려
31
##옥시
대해서
어야
새
요청
##pt
해결
<
자기
or
방사
그림
디지
##ED
경화
비율
엔진
독립
cm
도어
기존
Q
##ph
유전자
해서
적층
##ies
상술
활용
제시
##물질
{
헤테
하이드
업
##ort
평면
화소
##ran
##ib
wh
*
45
케이스
α
발현
노드
휴대
벽
상이
##플리
중량부
부틸
노출
먼
##ide
헤드
코드
199
세척
흐름
철
달성
##복실
나타났
못
클로로
는지
스프링
광고
중요
각도
분말
응답
이것
마련
##케이션
이어
충분
재생
##히드
##ens
초기
28
인쇄
아래
comp
보여
##age
##아미드
##번호
투명
##가능
01
가압
전환
고체
##램프
디메틸
##uc
조직
##ys
쌍
진동
분사
기계
000
반복
렌즈
극
이해
##아미노
흡입
안내
수준
첨부
없이
27
사용자
처
배열
시클로
할로
##ition
였으며
디지털
##메라
##플루오로
##und
퍼
배기
단일
상승
정확
나노
등록
앞
##트륨
Table
에어
헤테로
성장
'-
##분자
인증
캡
cont
준
배양
난
Th
도포
일체
절단
검사
질량
산출
##fer
디스크
아릴
인접
부위
컬
##ign
##교환
현상
직경
분해
전술
여부
알루미
##플리케이션
으면
##트리
멀
다고
허용
루
레이저
##프레임
성능
운전
y
률
##ence
##아민
아이
33
실시형태
인해
격
Si
##전압
##yst
함량
단자
으므로
개폐
미만
라고
음성
##리어
완전
소스
im
해야
예측
카드
##ge
덮
화면
카메라
실제
구멍
##미터
핀
##MS
명세서
##Cl
05
×
##러스
안전
비해
미리
##제어
오일
노즐
종류
##외선
##그래
아미노산
##영역
움
검색
se
공중
중합
용어
##웨어
300
주요
혹
히드록시
창
##00
##테나
양측
역할
시킴
##활성
상면
##롤러
롤러
메인
명령
방출
펌프
주변
##io
##보닐
촬
획
증발
헥
##터리
나사
곡
전면
기어
핵
##어링
from
pH
##te
##고리
메톡시
칩
표현
29
지역
운동
산소
웨이퍼
희
미세
인지
혹은
프로필
상하
##벡터
투입
##먼트
전방
습
픽
질소
시작
복합
정상
##테이트
매체
co
부품
연소
끝
##수소
글리
##시스템
유의
접합
##ia
##ress
파라
표준
##리트
청구항
펄
벤조
프로세서
의해서
코일
개략
프리
NM
도입
녹
500
최종
유효
##erm
##lect
분류
##전극
##카르
안테나
별도
##AT
##ug
박막
걸림
자동차
굴
본원
##회로
알려
외주
발전
엘
월
메타
구성요소
조명
##ance
샤
세정
새로
저하
##세포
토출
생성물
남
농축
지방
##인트
부가
인간
피스
와이어
펜
제안
크로
에스테르
잠
초과
##art
피부
MS
##form
획득
파이프
##폭시
학습
##AC
##ill
37
##ich
먼저
비스
웹
36
34
en
기간
튜브
만족
구조물
플루오로
공지
류
##ak
##어나
보강
쉽
피리
잘
모노
수집
75
던
오프
ad
미치
##레오
##se
벡터
##소자
석
융
β
움직
상품
기본
inc
관찰
열교환
머
만들
센
##에틸렌
실내
le
기기
##콕시
##오드
코어
기구
후방
##ific
분포
##크리트
용량
링크
##하이드
##rans
빔
용접
±
z
알루미늄
##ast
증폭
교환
##단말
패드
부터
##화물
실온
##모터
해석
나타나
can
냉매
투과
용융
가변
LED
##입자
멀티
##힌지
증착
##ard
배선
차원
##ents
새로운
고리
능
잉
we
kg
실질
42
상세히
##ET
이어서
휘
per
넣
##유닛
##기판
##pm
##니트
##ue
95
야
주사
배터리
이격
41
교육
##결합
미국
피스톤
##ystem
소비
너
산화물
게임
##진다
유형
##수록
타이
되게
제외
참고
고무
시료
##IN
마이크로
pl
상단
##hen
힘
친
기지
품
me
##all
##yp
##hem
DNA
추정
##량체
##rol
##모듈
분할
##펩티드
순환
##니터
다중
mod
ind
수납
인터넷
패킷
핸
최적
마스크
각종
라는
회동
힌지
날
상황
타입
##기어
RF
##ert
판독
개인
..
##PS
##단계
끼워
콜
sc
Na
##OS
로드
비디오
공중합체
고객
##방지
##ach
55
소재
##바일
이외
모니터
스위
프로세스
사람
it
래
태양
모바일
##vel
풀
##are
##공간
##ight
펄스
정지
##아졸
##패널
##공급
전지
##조절
##즈마
150
반대
드라이
St
ID
물론
실리카
비용
풍
>
통한
##뉴클
삼
밀도
컨트
보정
400
지식
콘텐츠
고분자
콘크리트
균일
순서
테스트
탐
##공정
ap
슬라이
##ass
pre
세트
요인
stud
완료
##업자
dis
유도체
##그네
추출물
##cess
##enc
플라스
38
##우스
##통신
기지국
전도
트랜
광원
회전축
##베이스
떨
48
##팽창
공개
’
행하
##ction
플라즈마
US
##그래피
Pro
접착제
확산
형광
주기
비교예
##ations
유압
cell
##복실산
연산
위상
얼
대체
물리
세탁
##시간
지속
척
120
에틸렌
##트산
mol
알콕시
빠
회수
-,
하단
흡착
##ID
65
볼트
##벨트
##port
스위칭
밀착
폴리머
##뉴클레오
방송
피페
##AM
##레인
DC
면역
손상
언급
구간
ph
##ob
우선
##돌기
좌우
##ater
##히드로
신뢰
숙
ne
gro
테이블
샤프트
포트
구분
못하
지연
Cl
봉
Ch
컨텐츠
레지
일치
개별
밀봉
동기
최근
가질
잉크
##ding
fl
부여
쪽
##ave
dif
피리딘
확장
식물
기체
##ong
파장
##마토
meth
촬영
자체
솔
##사이드
##ata
원통
떨어
상측
보인
NH
할당
이전
지원
##ost
이중
##Hz
show
대기
##etw
살펴
##수신
탑
사회
##에스테르
SO
주행
무기
파라미터
베어링
##ice
##CC
빈
##마트
NMR
비닐
##ace
가상
만큼
계속
지점
보이
수분
he
오염
유용
할로겐
원료
일단
##ary
질환
깊
43
견
버퍼
##라이트
잔류
빛
워
통합
스마트
di
전화
51
충격
##ER
대략
클러
소프트
##가지
캐리어
##로드
거의
탄소수
##ang
탄화
뒤
금융
##수지
스크린
고온
##이브
유로
확대
확보
##울러
마다
염기
조립체
am
자료
압축기
돌기
##디어
##AN
아민
##언트
##관리
##실시
포스
대조
공통
하이드록시
##리브
에폭시
램프
횡
스트림
운영
##멘트
##패시
안착
장애
건강
##지지
연마
가로
##시아
완충
대역
자유
목표
##라도
액세스
자신
##결정
85
##MA
갈
긴
##ased
어려
cl
선형
생략
##ene
자연
##치환
합금
면적
잡
44
##ffect
##duct
객
많이
개념
##LC
이루어진다
접근
어드
사이클로
전해
##사이
PD
##OR
##ST
푸
##코딩
δ
##나트륨
this
##데이터
상관
##표시
52
릴
대신
대향
슬러
##ium
감압
##아세
케이블
아세테이트
##olog
##찬가지
마찬가지
술
반면
##ely
trans
##형상
기타
부하
재질
단량체
방전
##라이언트
배수
##전지
계수
걸쳐
##클로로
##양태
희석
##라켓
동력
##nt
##밴드
##코드
min
매트
원형
제어기
브레이
클라이언트
장점
##잡이
##ear
놓
inter
계면
종료
승강
편광
IC
분배
##거리
which
구현예
탱크
실시양태
애플리케이션
##글리
하측
대부분
기억
유량
수정
##ve
데이터베이스
마찰
##분석
연관
우측
지정
문헌
Re
스텝
가하
하드
출원
손잡이
##반응
동물
협
##AR
복수개
02
99
##리드
시공
##ack
범
말단
품질
아크릴레이트
LC
암호
사이클
Ar
가동
##음파
##기구
보관
첫
란
인한
통로
Co
벤질
##one
##용기
pat
크로마토
방향족
넓
어레이
픽셀
옥시
반응기
진다
##ime
시점
가정
##ator
육
정수
int
특이
단순
특별
초음파
어떤
j
능력
간단
레일
도로
일실시
그래프
39
드레
자원
평행
오디오
정렬
##pos
##버터
##도시
포장
##our
몇
##아릴
점착
연통
수용액
버튼
피롤
sign
##OH
어도
##ym
##레이터
As
##ber
##ox
##셈블
과제
폐쇄
팽창
##ork
##넥터
##ram
해도
##rad
##ry
53
어드레스
##생물
##오스
not
##한다
알고리
그것
##공기
##ric
문자
망
효소
##기능
##SI
내장
주로
예방
##셈블리
##ous
패키
절연막
ab
소프트웨어
ob
##oll
법
스토
순차
필드
브로
val
벗
플로
##영상
사상
##메인
개수
##erv
##펙트
약물
MP
함수
알킬기
옥소
트랜스
지시
받침
differ
##ax
검증
도금
윤
리드
로써
바디
##ution
용도
위험
##포닐
중공
커플
##블록
더라도
상당
##코올
무수
달리
세라
악
##레이션
겔
비치환
SN
un
크로마토그래피
##패시터
46
판정
「
산업
유출
수학
한국
##벤트
송수신
약제
움직임
NO
좌측
ST
깊이
##분해
포화
마우스
고유
AP
Con
생체
알고리즘
IP
배관
포토
110
도달
돌출부
절차
서열번호
에칭
구리
54
72
미도시
##ile
속하
마그네
ro
##ite
도메인
덮개
히터
일실시예
##ection
##end
스케
using
high
##EM
준비
라디
개구부
변수
프린
항목
result
##특허
##하이드로
플랜지
##ility
공유
다운
스티
반송
##IS
」
anal
##기기
경제
에테르
슬라이딩
쓰
sub
변속
플래
논문
61
세라믹
메탄올
트리플루오로
커넥터
-{
전하
수율
천연
Ti
##CT
Le
다르
구체예
처럼
system
##에이터
분쇄
밝
##서버
냉장
해제
##int
폴리에틸렌
파악
발효
구동부
act
객체
환원
##타이드
진단
브레이크
mM
##레이드
보상
CP
니트
##이소
임계
##ature
일본
##ual
연계
경계
##룰로
강화
62
주위
pol
##ular
ppm
‘
절곡
벨트
시각
구매
연결부
탄화수소
부피
배지
대표
##코더
캠
페이지
테이프
향하
기법
##IC
양호
##프탈
47
스피
열전
##릭스
둘레
보안
have
##이너
제제
##ie
##ruct
어셈블리
식품
양태
##yd
##고정
##칼리
##매체
##ust
##ating
식각
사전
활동
락
##구멍
응축
≤
섹
홀더
장비
##커버
패키지
56
져
이벤트
물품
기업
##yc
표적
팔
##pro
##뉴클레오티드
method
플라스틱
##펙트럼
64
살펴보
교차
##화기
##플레이트
##티오
사진
Ac
##시트
가진다
톨
MHz
##ron
황산
지지부
밀폐
퀴
완전히
팬
An
압출
타측
충분히
상응
##레탄
NR
간섭
##MP
##자리
통해서
후술
가교
구조체
##다졸
공동
##미딘
통계
하중
포인트
##BS
##수성
음식
##ors
##EG
다이오드
아닌
열교환기
Me
오목
입구
생각
##AS
군으
촉진
##그먼트
컬러
전문
##금속
이탈
에지
##단말기
들어
ass
##een
고압
##리지
##ative
바이러스
##ther
발열
느
III
다공
##발생
국내
유발
##ire
스펙트럼
##ree
03
##der
CR
##ON
수성
로봇
자외선
드럼
##분리
전구
##ugh
아울러
생물
198
화장
HP
알칼리
팅
현탁
증류
##러그
49
직선
##ied
##본체
##머지
후면
gen
##으나
##방식
##티브
컨트롤러
rel
여야
손실
표제
프로토
의료
##ound
##렇게
##CH
휠
핵산
나머지
짧
당업자
글루
##ex
##수수
하지
이루어질
##아제
분자량
시아
##기간
참여
##dition
##비닐
아세트산
인하
청소
모양
##ower
보였
##oth
학생
프라이
발포
자세
가속
에탄올
##링크
##ose
항원
의도
려
##산염
DM
근접
sam
측벽
##uch
##yn
지지대
슬라이드
##NT
##재료
Sc
연동
전후
##성분
씩
col
인장
##기관
버스
CF
침전
##부틸
##리스
원격
기관
study
증기
변조
좌표
250
열처리
##보네이트
구축
96
흐르
var
저감
##ysis
57
##조건
라디칼
매개
나타난
윈
##로그
신체
치환기
불순
reg
##모드
##헥실
잠금
수용체
타이밍
##ep
출구
고속
다수개
##단자
코딩
암모
63
저면
##회전
##케닐
알려져
모니터링
##페이트
피크
당해
AC
경향
신경
##ple
응용
TH
##레핀
밖
배향
거쳐
##ype
##ix
##계수
종양
cons
선행
##환경
##에테르
group
used
##선택
라면
눈
det
불순물
매트릭스
has
커플링
effect
98
슬롯
58
자극
##관계
프로토콜
##out
민
##ech
방열
##출력
tert
PR
OH
##메톡시
대안
실시간
디클로로
원소
티오
time
##루엔
어플리케이션
qu
resp
파워
이유
bl
...
사고
전사
미생물
##etween
클러치
잔기
71
acid
금형
Com
##ark
그러므로
wt
##VD
인자
##AP
밴드
스페
고형
##원자
선정
##ov
케이
염화
양극
정전
나트륨
Li
한다는
블레이드
sol
단편
control
력
##라스
보유
##작용
2000
브로모
송풍
쿠
##작업
거치
레버
IL
조리
피복
관점
test
AT
##파일
##이타
##rib
알코올
##ics
Mg
피라
전형
증대
##ann
between
소음
##사이클
폴리에스테르
단지
하지만
앞서
트레이
##화제
##필터
컬럼
예비
카운
의존
대조군
백색
리튬
이동통신
ar
이렇게
판매
sur
##so
우리
data
78
001
음극
하강
##도우
##ING
전동
##니트릴
곡선
##AG
Ph
##ode
##ES
세그먼트
표시부
첨가제
전이
정면
쉬
기울
셀룰로
##각형
글리콜
관심
수치
교체
##넌트
##연구
##라우
길이방향
넘
처리부
##anc
텍
발견
계층
그래핀
운반
04
한계
색상
incre
겟
인출
배합
66
노광
단점
AN
##스테
이루어져
전위
반경
ag
##단면
시도
자석
시아노
신장
##덕트
정해
##ock
1000
논리
130
tre
##운동
엘리
##크릴레이트
##운드
랜
근거
part
입사
이산화
##레일
경험
프로브
pos
선단
유래
all
##acter
벌
##카르보닐
TF
헥산
##포넌트
가해
박리
##ros
태그
##OD
일반식
##lu
스캔
저장부
sup
박스
##ency
##크로
휘도
피리미딘
뚜
−
피드
현장
##젝트
프라이머
68
Bi
메트
가장자리
브라켓
##ates
지지체
##위기
약학
작성
Fe
than
루프
}-
충돌
단독
방사선
뇌
감염
어떠
##OM
복잡
결함
신속
모형
탄산
융합
감광
구역
##ient
##탄소
##ond
다면
규정
##대로
PCR
설비
##aus
액상
82
곳
양자
67
멤
접지
시뮬
체크
적당
exp
Cu
##tern
##이서
읽
도출
카르복
81
셋
특별히
단열
model
바이오
##cent
착용
평면도
찾
##unction
주소
##글리콜
##ions
##ization
##시아네이트
des
59
굴절
sec
전도성
out
복호
에러
헤테로아릴
콘택
수신기
선박
컴포넌트
##iss
흑
SE
##결제
##용량
펩티드
정밀
핸들
92
제약
원인
수산화
##지막
##이즈
##ized
##ood
운전자
##세트
건축
EL
토크
클럭
##라진
##아가
김
폴리펩티드
제형
낙
집단
원통형
##II
##패드
염색
러
##자인
물체
엑
ev
변위
##ok
CN
car
q
#
73
ext
##포트
데이타
문서
기대
지나
##ract
살균
##fter
폴
오버
##ome
소비자
역시
##oint
스페이서
spec
Et
dist
CC
센싱
##케이스
소형
##워드
acc
너트
발신
웰
600
톨루엔
tw
##특성
##ulation
##메탄
인체
올리고
냉동
##활성제
불량
변동
##IP
SNS
##패턴
편리
몇몇
SC
##벤조
배면
이론
턴
스크류
최초
리스트
94
76
원심
##SC
벗어나
91
마지막
97
입체
IV
비하
##PC
“
수학식
##ject
일례
어렵
OF
Res
##저항
##기술
##랭크
핸드
##대상
level
쇼
##echn
왔
윈도우
different
',
원활
사출
##전류
SD
프로필렌
구획
##RNA
스테이지
74
윤활
그런
저해
Ca
##mun
플루오
##시클
UV
DB
##바이
##of
플러그
##이미드
시퀀
유전체
##ively
피라졸
수동
복원
세로
혈액
num
form
##트리지
2010
무게
##수수료
”
커패시터
홍
CT
반영
##ory
절감
전단
cur
향해
##니아
퇴
현저
속성
스트립
고정부
통화
캐비
프로판
##AL
알케닐
아암
끼움
섹션
AD
탑재
일어나
ant
옥사
드라이버
##준다
88
##저장
180
적재
##펩타이드
결합부
계면활성제
였으나
닫
93
제어신호
##ious
의사
##서리
지칭
왕
날개
댐
dec
##보드
##연결
101
냉각수
##yt
권취
치수
얇
개재
##파이프
##unt
부호화
변이
레지스트
한쪽
##감지
Ni
Figure
process
고장
##용액
##변수
##SO
중첩
안료
폴리올
플레이
파형
맞물
여도
##박스
##수수료정보
에톡시
##GF
텔
man
할인
06
SP
-[(
83
압착
##ration
84
약간
냉장고
ii
분위기
로우
##필름
θ
였을
##이동
86
열가
2009
불포
미디어
거래
담체
##asure
##포스
둘러
08
하위
억제제
##IT
시행
##스프링
불소
적외선
교통
복합체
수송
케이싱
수축
been
시퀀스
카트리지
##프로필렌
##노이드
##eld
형질
계측
디자인
수술
예상
77
대비
바탕
##설정
호스트
외관
편의
##주파
생활
##ffic
슬러리
타이어
##uld
가중
레지스터
피페리딘
##효율
##ane
activ
양쪽
em
분기
경과
##ology
##ail
##헤드
온수
응력
명확
장소
병렬
삭
전반
140
##횟수
##문헌
##plic
기둥
모서리
대로
Zn
##조합
RS
하단부
건물
+)
cor
Sp
signific
열가소
트랙
##테이너
cells
sim
균주
##사항
듀
##inal
캡슐
플랫
전구체
69
점도
난방
##볼트
결제정보
De
페놀
양단
fact
##CO
results
##ange
##가락
개질
섭
87
내면
다가
테트라히드로
##이온
배출구
격자
##erg
하향
보존
WO
트리플루오로메틸
2008
클로라이드
Kore
##촉매
완성
##ollow
몰드
카르복실산
시뮬레이션
also
칼럼
perform
유연
앵
가치
잔류물
블럭
##구동
En
##변화
##icro
종이
중간체
임상
elect
inf
##ath
축방향
&
바로
up
2007
γ
vol
숫
지도
저온
This
부족
analysis
##hes
IT
##실란
사이드
",
ᆞ
가까
##마이드
OR
감시
2011
rec
07
폐기
뚜껑
중앙부
맵
RNA
끝단
PM
정량
##ydro
##성질
좁
##녹시
타단
피드백
##ne
##전력
국가
based
##ement
아세틸
No
사료
사이즈
과학
필수
붕
좀
갱
진입
절개
소결
응집
듯
관절
##나무
일으
such
##다이
절삭
##resent
이점
##ord
two
Chem
EP
라우
하드웨어
##출원
##타늄
Cr
##형성
##ind
점수
##par
실현
##uring
RFID
##les
##ability
하이드로
맥
UE
마그네슘
집중
인버터
##측정
##ins
매칭
슬리브
동영상
취득
##노드
Se
gl
온라인
나선
##프레
실외
음향
79
수명
시설
신규
가입자
차폐
소요
사업
질병
주어
감싸
벤젠
차지
슈
작업자
2005
no
직물
each
분획
록
##나사
야기
선별
저급
로터
##폰산
##플루오
##니즘
래치
니켈
상향
##베이어
가시
도구
공진
##화성
EC
헥사
##랜드
하이브
사실
널
체인
하이
액정표시
나누
파지
소성
다리
스핀
##arg
med
##ans
Ex
##velop
##ield
문항
정화
아스
##ined
혈관
증발기
##raph
2006
##put
##카드
인공
##cc
##face
영양
나프
##agn
간호
개체
function
헵
탐색
함유량
강판
##formation
PL
메뉴
펠
시그
##SP
지방족
지그
입력부
트라이
Mn
##rac
음식물
행동
significant
심볼
2012
##IM
##록산
급수
후보
팩
궤
und
가격
아르
스타
89
u
##타민
중계
##tain
원주
##OA
식별자
아연
follow
폴리우
##부위
##래스
##ues
접하
##ression
평탄
##ients
회원
Ag
##ma
동적
워드
업무
SiO
##시설
셔
천공
적응
over
아날
##두리
스트레스
재조합
pr
오류
Ig
주차
br
##iation
질화
##시클로
정책
디히드로
type
초래
시클로알킬
PS
→
met
연신
떨어지
inv
##에이트
파손
##놀린
책
그대로
림
##피스
보여준다
단축
미립
상단부
더불
measure
##화학
아날로그
09
표지
gener
직렬
만약
##레버
##ases
경도
##세싱
##페놀
스토퍼
바인
dd
벤즈
인산
귀
We
구하
##lud
가수
##일러
검출기
대학
전계
PP
##선택정보
##디닐
돌연
현탁액
해상
성질
부직
로딩
##실린더
모르
카본
other
평판
##채널
칼슘
가져
라이
니트로
알려진
DMS
##덱스
자성
검정
카르보닐
##클로라이드
##TP
##ever
메탄
추적
착색
달라
다층
증폭기
항상
##duc
CPU
one
빈도
규칙
지하
견고
##가공
##이미
##효소
##스위치
출발
볼록
프로세싱
간편
판별
MC
##청구
이소프로필
촬상
머리
more
스피커
세기
졸
염료
Un
2004
격벽
납
mult
실란
주면
공구
적정
##리아
에피
par
배경
HPLC
설문
센터
##산물
##hed
전해질
운용
##ared
##르산
밑
합성수지
규모
##간격
cal
불포화
##스티
Δ
분무
카르복실
##전달
정공
파괴
줄이
관능
추진
나아가
상온
스티렌
약제학
##EC
##발전
폴리우레탄
명백
##AD
##서비스
tem
##표면
계획
분지
아미드
돌연변
후속
미끄
선회
##cept
지수
터빈
마스터
but
일면
증상
##교육
DMSO
복귀
갱신
트래
펀
영구
시장
SR
외면
##동작
론
##atic
학교
##fore
페이스
대상자
##ting
삭제
순수
터널
##용성
##포름
마주
토양
여성
##미디어
CS
인돌
생성부
드라이브
당량
##ize
모노머
CDCl
음료
##rop
105
##비용
##gen
문화
이용자
##성형
클램프
착탈
요철
##텐트
##노즐
선호
둘러싸
##화합물
행해
압연
##성질체
극성
##ik
검토
텍스트
##co
number
줄일
양성
디코딩
##ish
지방산
고주파
텔레
Sh
채용
습도
value
부식
스캐
##lex
TC
졌
병원
셀룰로오스
##ink
##ructure
려는
λ
층간
there
반응물
톱
직류
프레스
초점
##rent
2013
fe
##ayer
플랫폼
탈수
이런
확률
스퍼
TR
after
non
##eng
하고
##실리
내열
rpm
##ational
인코딩
--
PT
교사
포맷
TM
PV
왕복
뷰
침투
##전자
싱
DR
##cer
AND
강한
생물학
2003
##데이트
sm
102
##어난
듯이
빠르
숫자
##레지
횟수
##턴스
헤더
lo
퓨
equ
##owever
오목부
디옥
##gan
보내
사항
유무
염증
rad
##rough
##없이
##거래
오브
디스플레이부
their
테두리
솔레
체적
##ness
맞추
##건조
트리메틸
조제
##old
##발광
슬래
상판
대칭
##ital
성공
DE
##OC
HCl
##비율
160
회절
도움
보드
인덱스
피치
##earch
유저
미립자
하이브리드
으면서
앵커
신축
단어
이내
##ale
산화막
##록실
##etic
-((
다공성
겹
재배
##미경
CM
널리
도핑
##벤질
직교
확실
아크릴산
exper
set
BL
결제선택정보
슬릿
컴퓨팅
흔
골프
블랙
지면
올레핀
언어
사례
##own
반전
##압력
800
IR
리소
놀
환형
USA
알킬렌
배기가스
컨베이어
##iqu
제동
##ise
적색
Tr
보행
shown
##atment
맞춤
그렇
소켓
일부분
일시
염소
발명자
##가이드
붙
##etwork
간접
복사
항균
늘
폴리프로필렌
형식
under
특허청구
##로이드
product
대형
플래시
##보호
prote
롭
방수
Ad
ox
rate
바인더
교정
지표
족
보장
##드시
fil
##배출
일련
line
패스
곤
유니트
##rain
솔레노이드
부직포
불편
효능
관통공
용출
하면
사각
히트
##eter
반드시
##모일
매립
디에틸
그라
실정
카테
멀티미디어
축적
보통
화살
원리
용제
나라
수용성
건설
한다고
##ethyl
##AB
Am
경사면
휴대폰
##requ
디코더
컨버터
덕트
기인
##50
##레기
필터링
미러
It
몸체부
##ian
교류
##플렉
Pl
전파
##전환
부정
##ism
하방
Kim
체계
##사각
결속
브러
스마트폰
시약
멜
##순환
순위
PE
계좌
몸
손가락
220
화재
혈청
IN
얼굴
Ap
실제로
char
##ider
통신부
소모
##광판
##데히드
과도
CL
갭
마커
킬
증식
##ible
강성
굴곡
cr
##분말
##입력
눌
##로우
그래픽
2002
알콜
##ified
이르
##과정
##레지스트
##ification
생기
엘리먼트
이미다졸
##tt
에이
##ery
오브젝트
##ren
집합
폴리비닐
기여
생리
cap
불활성
develop
스퍼터
id
기질
프로피
##ick
PO
왜
정해진
##시험
압전
펌
환류
섭취
For
수용부
된다는
감속
프로파일
형광체
##다리
녹색
##ities
스팀
##arm
##변환
기저
실링
##ung
플로우
TV
RT
휘발
##성능
HD
지주
카운터
양상
##tal
출입
성과
시멘트
장식
침지
##perature
##ole
Ne
##아세테이트
유해
알파
공급부
##itive
Im
동결
dep
렌
##ause
##하우징
##ural
연령
긍
제조예
##ae
##전원
헬
##간드
카르복시
rat
마감
사이트
condition
든
THF
He
LCD
##기준
##펠러
##OAc
을수록
전용
##래킷
해소
높일
여서
접점
마모
System
적절히
내벽
샘플링
이웃
표시장치
where
##카보네이트
뉴클레오티드
체중
##20
기상
##ption
맨
point
포토레지스트
DP
일체형
##yr
의거
이션
업데이트
오프셋
##디스크
긍정
흘
water
##능력
보수
##헥산
암모늄
아서
밸
도체
##osph
##대역
점착제
이산화탄소
걸리
prob
아세토
뉴
##자료
##메이트
노인
풀리
나타낼
광섬유
dev
화살표
MPa
국제
가수분해
##),
청색
스케일
Ga
리간드
강하
관측
신발
너무
티타늄
공보
실장
타임
변성
뒷
호스
210
report
##던스
##FC
기포
##구간
벽체
부유
mon
편차
닐
sl
완화
2001
명령어
수위
보고
등급
GPS
디이소
##프로판
respect
클러스터
자리
급격
vari
허브
벽면
가중치
논의
균등
구동모터
##접촉
양면
into
유성
def
리브
글리세
##구조물
이득
pe
잡음
구성도
보인다
이식
includ
##검출
누름
레이어
플라스크
ed
균형
##산기
플렉
patients
통신망
탭
##공보
믹
##에너지
수요
바이어
스택
시계
##10
세계
내경
주름
##마이
규격
Mo
att
its
호출
##회로기판
발전기
환급
철근
well
노이즈
rep
디클로로메탄
EtOAc
There
점차
시프트
다만
로그
##설비
loc
박테
라도
197
##US
경구
정리
bec
유아
##EL
스프
FOR
##ons
콘트
탐지
알아
송출
리더
treatment
랜덤
AR
채워
질량부
##SS
##ier
더욱이
##vent
씨
규소
위성
Sn
##뱅킹
비드
선단부
##att
프로모터
불구
2014
106
굽
로직
##irc
발진
받침대
through
차체
104
아이템
ED
댐퍼
클립
범주
##산화물
low
상용
비롯
오차
##rate
메틸렌
##배관
바퀴
##action
125
##ential
SW
전개
뛰
##부호
##제품
ra
sens
##설치
어려움
수중
power
컵
경쟁
CDR
However
Br
회전자
테트라하이드로
tr
변환기
멤버
릴레이
TFT
준다
SS
LD
투자
지지부재
const
특허청구범위
##등록
##피리딘
##피던스
검출부
황색
Cont
청구범위
나노입자
경보
강제
##칼슘
토록
중단
줄기
##실록산
##추에이터
관리자
##ically
나타냈
##치료
컨테이너
전략
빠른
##버튼
내구
상당히
세부
가족
700
MD
입출력
##irst
##소드
회전수
장력
소거
베이
시일
조인트
##이디
상위
상방
노력
##성물
개월
##posed
팁
들어가
시편
##패스
제어장치
첫째
비정
대상물
정신
균열
##조립
##용매
##시키
est
먼지
##에이블
염수
prov
##모델
바깥
민감
피페라진
필라
##ments
##oid
밀리
밤
발생기
공급원
##블럭
상관관계
hydro
시기
아웃
Korea
내용물
어려운
##ages
mat
비례
백라이트
##ict
시그널
##iew
##에톡시
##조직
간극
출력부
CA
temperature
##벤젠
##aterial
##런스
비상
##활동
프린터
##주입
칭
세탁기
피막
펩타이드
indic
전처리
유통
##휘발
시청
mem
calc
암모니아
##ines
안쪽
##TA
정면도
GP
전부
##터닝
스테인
수신부
##az
외경
##암모
when
these
##키닐
메탈
##츄에이터
##타디
##ral
DL
티아졸
수업
안출
방해
##유로
디플루오로
유선
Pol
##푸란
글루코
산정
빗
Gl
하류
지질
전진
##TR
공간부
패터닝
증진
흡기
페이스트
액정표시장치
목록
크랭크
partic
원단
전분
use
전선
칼라
누설
둘째
반응식
태양전지
폴리이미드
##GA
장기
##프탈렌
우려
##ording
appro
##oph
주요부분
버너
기공
아실
##추출
내측면
응축기
obtain
폐기물
##ences
##ION
매니
대전
##ulated
거울
current
트렌
가설
112
임피던스
특허문헌
##ination
구강
조도
본문
##EP
회전력
로컬
정류
##iment
피롤리딘
카바
열화
종합
##커니즘
페녹시
경유
축소
##암모늄
only
세균
may
AL
처음
아릴기
내성
##통로
ES
##부품
우레탄
입수
모습
움직이
##작동
##DM
근육
행렬
opt
concent
##UT
향후
음악
쉘
당뇨
경사지
##ould
##ants
곱
obs
유기물
후크
사슬
본체부
편심
발달
울
변하
111
프린트
##함수
액추에이터
구동축
구별
인입
바이어스
기입
##af
MR
##검사
##레벨
present
##lor
에멀
##포네이트
##증기
폴리아미드
##als
##바이러스
빨
Å
##hib
시판
유속
절대
통공
max
##ank
합계
상수
##훈련
bar
밝혀
##현상
##IR
structure
work
맛
techn
익
고정부재
관해
액티브
보일러
소화
지향
옵
조향
그런데
토대
다소
젤
나오
다이아
To
##여부
##이미다졸
탈착
스케줄
인데
##후군
대사
숙주
～
주어진
틈
주제
##uit
과립
Ser
##술포닐
욕
##지역
PA
##EN
척도
특수
난연
알루미나
시켜서
치아
##requency
##분류
승인
##푸집
히드로
주석
한쌍
##ays
매질
임계값
bi
지반
103
수반
패킹
카세트
해진다
##mon
전혀
펜타
공기조
##브라켓
제도
##led
##ute
##유리
##받침
스테이션
##인자
해양
포지
잠재
MT
##마그네
oper
##조사
염산
캐비티
마크
지지판
겸
비중
세션
측부
라이트
ser
멸
키트
##ved
태양광
슬라이더
##ality
고도
폴리아
추천
블루
베타
주목
micro
구입
원심분리
so
##흡수
디페닐
담당
MET
##코일
##IV
##리오
돌연변이
누적
Dis
기부
통증
방안
수신자
트래픽
do
보완
##펜틸
칸
순도
중복
얼음
##aa
##ior
end
가까운
##gram
RP
##IL
##사이트
##40
##EA
하천
OC
만든
산란
삶
걸림턱
##칼륨
단차
##어지
then
메커니즘
쳐
키워드
엘이디
##커스
Lee
메쉬
프로그래
##젝터
권선
부톡시
폐수
최고
##마그네슘
##ull
##리닝
부근
레이트
Mod
##서관
쇄
하수
##ional
검지
##ake
결국
##andard
생존
핵심
오존
##캐스트
알키닐
비타민
개시제
직쇄
해수
대상체
쓰레기
발신자
인덕
PCB
##ogen
poly
탄성부재
직무
##ograph
kn
막대
차례
회복
respectively
충족
계통
스퍼터링
∈
##주파수
무수물
큐
탄력
캔
solution
기호
수면
도광판
틀
방문
##IF
bu
main
송신기
클록
순간
grow
##red
##ey
Fc
##레드
230
character
디하이드로
주형
determ
##제어부
상업
##아웃
##페이지
할인정보
HT
##aw
##다이오드
##레프탈
인쇄회로기판
지상
지르
SEQ
정합
틸
캐소드
##실리콘
2015
리셋
최소한
##스토
매핑
term
후단
consider
##제거
통지
##학생
모션
타이머
공격
취하
토너
##ormal
낙하
′
구속
띠
곡면
텅
same
요부
Sci
먹
가맹
주문
off
기울기
투여량
집진
한다면
##ected
##OL
TN
eth
아자
워터
도료
애노드
surface
시동
투영
LT
횡방향
information
해상도
깨
FR
##운데
##인터
파쇄
##스티렌
##머니
")
파우
지름
원래
스틸
채취
랙
주조
##하중
On
##받이
명칭
기하
발휘
풍력
캐패시터
##도어
##over
카르바
##pert
##메타
다이어
Meth
##ergy
##ps
최상
##tic
##릭터
탁
요지
##ource
##ody
벨
디메틸아미노
PH
일으키
변이체
진폭
연결부재
클램
##서트
전통
##니언
현실
둔
아이콘
##30
170
##스타
오븐
##스텐
옥사이드
태도
실용
dire
상류
융점
플레이어
공극
observ
##단위
Ind
올려
##결제정보
배제
total
지문
전자기
성막
발광소자
편광판
편향
지금
습식
350
요약
TS
수광
플라스미드
er
브래킷
토출구
극대
도모
집적
포스페이트
감쇠
##gor
##라듐
##전히
TP
##적외선
##지수
##민국
직사각
##ision
신청
##MC
도관
##alu
관하
values
##게이트
트렌치
오리
대한민국
관통홀
##osis
##중합체
design
일측면
##러리
during
분산액
빌
##ping
미끄럼
메타크릴
싸
flu
##bon
Bl
테레프탈
rem
##유체
분비
case
보충
피하
##vers
ESI
제어방법
108
##ivers
카운트
Trans
##istics
##폴리머
##금액
분광
아동
변속기
BS
다량
감지부
환급정보
수조
이종
스토리지
자기장
완충액
경고
비행
most
##스팅
##60
##라우드
연장부
결합제
##사체
대역폭
가맹점
포유
240
독성
중쇄
Val
##IG
카복실산
피해
ON
거친
cancer
줄어
##ms
##ule
-{[
적층체
※
비정질
##its
##사졸
화장품
studies
사업자
경량
layer
잔여
##DNA
Inc
편집
three
변형예
®
##센트
환상
정부
OS
##날개
##--
##질환
캐릭터
phase
##장비
쿠션
##ning
분출
##자석
예약
안티
IF
프론
모델링
숙성
섬
사이클로알킬
##iron
국소
리모
인에이블
aut
교량
##rid
##덴서
exam
##UR
##ological
정착
근거리
행위
##ler
비밀
호흡
AA
?
함침
북
PET
터미
##ference
IgG
##gg
##분포
만곡
튜
**
일단부
임시
마운
##카르복실산
##eh
found
줌
121
##ribution
보험
펌핑
##ervice
##..
requ
##모형
피로
##트로
면도
higher
비슷
입경
액화
삽입부
아크
ident
포집
##파이
거푸집
비대
AB
콤
인서트
##디올
인슐
##차량
##나제
##가루
Gen
showed
dr
if
##atus
METH
오픈
바늘
공기조화기
##알데히드
##웨이
##reen
##알루미
종방향
권리
액츄에이터
DMF
cyc
텔레비
사용량
행할
워크
##바디
다운로드
여전히
##ensity
도파
자전
운행
protein
양이온
ins
증류수
가요
바이패스
중국
냉기
activity
##데실
엠
회전가능
MeOH
##cri
부모
PB
역방향
order
텐
##annel
크롬
내주
##카보닐
충진
##메틸렌
##ML
치환체
비아
콜라
PBS
본딩
툴
잔사
엔드
전문가
##외환
##atory
응고
Inter
단리
TD
##브레인
##면적
##연료
아세톤
아직
##yz
리포
셔터
##raction
지닌
소수성
##TS
슬라
##rel
결론
골격
##erc
단락
ROM
conf
Pd
퍼지
HC
|
나프틸
중성
평균값
켜
flow
라이브
##사업
간주
현미경
동등
습윤
중심부
질화물
더미
##OP
환기
친수성
##iod
량
서서
석출
##퍼레이터
##오염
중화
factor
##onal
파일럿
지니
first
바코드
##다가
##ount
대량
##iated
METHOD
전열
통기
addition
계열
엄
##베이터
선반
##방전
커지
멸균
Med
서서히
신용
##유지
proposed
##부하
타원
저압
리어
##imum
##ough
그리
필라멘트
1999
both
##ted
파티
시클로헥실
mean
##설포닐
림프
쌀
##에틸아민
##처리장치
젖
reported
기밀
정규
급속
헤테로사이클
플루오로페닐
규제
이면
프론트
취급
##ples
inst
시스
균질
class
인치
구형
Ra
본질
보호막
ele
아세트
겠
amp
올리고머
##오프
목재
열전도
signal
드릴
만족도
포스포
##뱅크
페이
##코어
중심축
##iven
##메일
SL
##댑터
load
##성체
에서부터
조각
##피롤
##alth
스프레이
아야
단순히
활물질
MH
클램핑
프탈
area
Ta
폴리카보네이트
##ucle
불균
오른
못한
퇴적
##지방
##맨드
##니스
행정
칼륨
123
종단
year
##ission
리소스
세포주
친환경
##ector
국부
감안
##teg
Cell
##기둥
의약
이음
연소실
멤브레인
폴리올레핀
compared
록킹
아세토니트릴
수거
거동
450
직각
불리
라벨
라미
##pen
알아보
프로그래밍
Method
##타디엔
##중합
게다가
로울러
prot
고정구
관로
##니다
템
왜곡
##ilar
계조
콘덴서
##뉴클레오타이드
##ides
나타났으며
cent
의류
##바닥
이소시아네이트
증후군
##아진
인용
흡입구
##코팅
##로스
##린다
폰
낚
감광성
Pr
##삽입
강조
size
페달
##ulf
##ft
##폴드
구부
<.
##arge
판재
팔라듐
이제
톱니
##왁스
ratio
107
이하인
##동기
중량비
피니언
디스플레
##por
감정
MA
요오드
잎
산물
##아크릴레이트
will
나프탈렌
훨
##henyl
삽입홈
접종
–
가리
##MI
크로스
##iple
미분
능동
파이
냄
채택
')
##duced
122
밤새
면은
##ivity
##cl
PEG
구배
갖추
field
##air
##학교
shows
##urn
가구
param
##80
쇼핑
금액
대장
아미
##경로
##안내
혼입
탄성력
##con
분화
MAC
select
자형
핫
교환기
##차단
답
흘러
##비율정보
##oy
VL
훈련
폼
바이트
심리
##나노
훨씬
낮추
##옥사이드
캘
##분사
상보
서브프레임
가운데
부탄
복제
##oss
sequ
115
활발
##usion
교과
##상황
import
레인
spect
##수준
OL
material
##피페
##ext
운송
el
그러면
회전체
##홀더
할수록
%),
어댑터
SA
꼬
##란트
흡인
극복
Cor
##알루미늄
작아
용리
열풍
뿌
pot
대화
##igital
몰딩
##row
DS
decre
스크랩
치료제
##형제
차광
가소
dim
network
NC
텅스텐
앱
path
왼
스테아
##enz
##정식
내려
sw
고형분
##ching
##mit
##런저
백금
식생
포름
백신
착신
due
##특허공보
##접속
##ength
톤
펼
research
저항성
캐시
심장
##GT
900
syn
##휘발성
박테리아
카복
당업
##plication
테이퍼
##루브
경화제
##내용
트리아졸
##러운
##duction
누르
공조
increased
유효량
had
통제
클래스
외피
weight
축선
갑
만드
끼워져
USB
VH
Or
##산나트륨
기름
핑
탑승
축합
tra
코너
로프
상한
헥실
contain
##산소
1998
헤테로시클
##합성
커맨드
만일
평형
표기
MB
점검
##전송
목적지
지각
알콕시기
교대
##변형
섹터
올리
ref
##방성
어린
공사
감마
OD
경쇄
흡광
브롬
%(
서술
화물
AS
외장
어떻
performance
이동하
전원공급
변환부
=.
##vious
소리
##세정보
우울
나사산
MOS
because
##전체
고정자
impro
리세스
장기간
세제
mRNA
용적
##렌지
DCM
원하
트리거
##구성
##III
메타크릴레이트
침전물
hum
##tage
외벽
그래서
##스크린
터미널
##viron
##hel
Data
Fl
명시
PG
광선
SEM
소량
##inding
##play
##투스
불과
##이송
##itro
##절연
광범위
옮
건축물
출사
Man
##라닌
배리어
##ited
협력
extract
아르곤
evalu
##리디닐
과거
라이너
##여금
연료전지
실리카겔
맞닿
인력
취약
사각형
##지지대
플런저
##유입
##작물
실릴
실패
외기
임플
단결정
가닥
add
Anal
비록
##해석
Gly
즉시
Control
##fficient
##ilic
임펠러
메일
##레스테
걸이
밝기
곤란
##스테인
용지
황토
SH
원가
왁스
##lic
##니어
##sor
Therefore
프리즘
Leu
##계좌
SM
##수용
창업
이름
하여금
Zr
저수
##실험
Mult
##더링
image
GL
당뇨병
재활
occ
돕
타격
##혁신
파트
##반사
##hip
##요인
구동력
dB
경질
obtained
##chan
피리딜
HS
양단부
입증
CON
고전압
트리스
펜틸
press
가입
도장
##규소
블렌
##리덴
실험예
무선통신
시나
만성
측면도
##VA
허리
묘
단열재
##man
인슐린
나타난다
##마이신
타당
##운전
싱크
린
선행연구
예열
small
아미노기
고정판
키보드
our
수질
RE
인구
##계획
이성질체
##태양
라이브러리
머신
갖춘
깔
현저히
##RL
가용성
RA
길항
RAM
휨
회귀
##화면
lim
circ
멈
##gorith
##ash
디메톡시
new
log
포스트
외곽
알릴
심각
second
도막
종동
전해액
##LE
standard
##경화성
##verage
내연
##리티
pur
##ores
128
퀴놀린
복조
##프로그램
dise
HR
엘라스
히드록실
##도금
##aper
##호스
저렴
##킨다
신뢰도
##폴린
엘리베이터
둥
기화
##iver
they
##ross
##코늄
##imal
정확히
φ
살펴본
궤도
GC
떨어져
##두께
저부
##체계
참고사항
##스처
시야
꺼
##주기
테트라메틸
악취
##레이브
발생부
마그네트
≥
에멀젼
자가
폴리뉴클레오티드
ITO
나란
클로로포름
계량
수증기
연결관
##ety
별로
##샤프트
뱅크
폴리옥시
magn
안경
개량
##관절
##ince
소듐
빙
##소재
##리돈
##시각
건식
최초출원
아크릴로
구성원
##센스
##조정
##크기
##onic
ang
SF
##사용
del
표본
Elect
잔존
##ume
TiO
growth
##LA
양방향
PW
frequency
컷
조임
##쉽정보
연결구
##압기
cult
##강판
Pa
##rated
##일기
재현
부담
expression
##rame
공공
##품질
게이트웨이
##나이트
##티아졸
강관
픽업
##서열
별개
압입
주성분
필러
##토머
브랜드
각기
##론산
light
imp
공급관
##ror
택
위상차
tri
##업체
long
남성
임플란트
prim
##증권
##cus
##처리부
##25
지구
종자
질문
인코더
관계없이
##중심
션
알림
대두
므로서
성인
##ison
뼈
##ove
##son
교수
시나리오
오르
##시스
연성
아도
가이드부
organ
energy
적하
##70
오토
디아민
전자파
experiment
##GB
발행
inhib
모식
성형체
접촉부
##ices
기록매체
##GC
세금
플래그
적가
빠져
##투과
색소
need
##가열
114
자전거
mix
주장
##발트
lik
흑연
모발
저장탱크
##마스크
적극
실내기
##rix
슬립
인터페이스부
some
assoc
113
접속부
lower
##부착
부합
간략
화염
타설
phosph
##퀴놀린
131
##ets
강재
커터
##지점
##응력
대체로
정확도
LP
##케이트
red
그리드
원판
의자
공중합
period
요홈
에어백
매크로
##ingle
##공개
감도
어닐
1997
##시드
##배선
mark
넥
숙련
클로로페닐
비페닐
##amic
스럽
range
##시딜
##플릿
서보
복호화
##OT
##ade
WL
비활성
기설정
작용기
##oh
##디아졸
%).
중지
estim
##21
ng
ent
##테이블
sug
##position
##글로
접촉면
정맥
##ally
##ward
덜
##cop
정서
Comp
는가
버전
정밀도
열전달
차동
CB
km
함몰
최대한
-[-
##gest
발산
according
##조성물
device
풍부
invest
스캐닝
호퍼
Met
HA
FD
##올라이트
##팩트
##EE
Di
윗
주의
브러시
절첩
##덱스트
판넬
Ab
DT
분산제
영구자석
리프트
app
ps
BC
OP
various
support
종종
##eed
스크롤
교반기
CVD
선로
방치
sat
##라제
장시간
##ring
##ild
Pt
요법
근처
도중
누출
##orph
190
related
고형물
집광
##less
##ynt
압박
부형제
specific
##기업
철도
##요법
about
흙
도전막
천장
performed
##ffer
커피
310
##드럼
##inc
성별
##plied
##조립체
320
어떻게
할로알킬
##자원
mot
커팅
결합홈
스트로
에어로
##전기
아닐
회로도
창문
문턱
분리막
##알코올
원적외선
글로
VI
##로지
갈수록
추세
could
가시광
##알콕시
##ray
접합부
PU
observed
고찰
##경화
005
##elf
##뮤니
following
셋째
충전제
부드
눌러
##iter
##래그
이메일
척추
세대
Ba
##너트
##안정
-(-
봉지
##NG
실시태양
부상
증명
정적
굴착
##스트림
되돌
예정
##행동
다단
IS
groups
근방
##90
일자
수직방향
패치
프레
화장료
폴리에테르
SB
는다는
공법
##ired
경사진
dem
중력
##ling
탄화수소기
슬래브
chem
리턴
오히
ε
수도
돼
normal
그린
back
홀로
##nal
124
##94
체결부
제올라이트
오히려
강력
##ced
뿌리
콩
옵션
Ala
bre
모래
##펄스
BP
카르복실레이트
미소
compos
##itor
평활
mA
중재
관능기
불균일
비틀
##munic
##이성질체
significantly
2016
예의
##ymer
위쪽
##96
Pre
게놈
공압
induc
관리부
TNF
맞물리
옥사졸
수식
voltage
세탁물
위생
##동안
엘라스토머
##장애
##센터
오리피스
방사상
##나졸
투과율
종속
##ivid
##아연
##isk
##28
chang
##보강
싸이
effects
##ily
콜레스테
##트라인
증강
벤조일
##vironment
Ω
효모
##ner
##염수
압출기
##사이클로
후진
견인
##라틴
아래쪽
##anol
##NB
블루투스
글라스
pred
김치
케톤
diff
Sm
##레닐
그루브
실측
팽
##온산
복구
상품명
클라우드
116
##체결
이차
increase
치과
electro
테레프탈레이트
bas
Chemical
다이메틸
센서부
##ful
낸
무색
플립
므로써
NaCl
건조기
deg
티탄
절반
이력
##요청
디아
##자기
몸통
프로젝트
##텍스
맨홀
소개
##아세트산
놓여
조립식
신호선
ER
##르몬
일상
ms
##지지부
##산업
##agement
Per
iii
소유
##onse
##러지
cDNA
돌기부
학년
135
positive
냉방
송풍기
데크
##uk
##화상
무선단말
행한다
nM
생태
ret
AM
fib
커뮤니
proble
양측면
##erap
된다고
그램
개소
##11
탄성체
measured
지적
포켓
시술
스톱
GS
VD
distribution
카보닐
절환
배양액
##이용
메톡시페닐
TB
Lys
콘택트
subst
Car
가용
기동
conduct
##CCH
장벽
그립
측정값
HF
혈장
##ld
ME
NP
청소년
번역
아이소
##몬드
마개
##이크
메틸페닐
―
스포
륜
##rum
코발트
유방
가습
△
##com
업체
1996
동력전달
핑거
재순환
스탠
블로
수리
죽
활성제
담배
##plet
정전기
지불
흰
계단
should
##ocol
unit
Int
점등
결제증권
과산화
##렉터
##사지
##endent
현황
결제외환
hy
free
순서도
##ival
부타디엔
제조장치
슬래그
무인
상자
##ived
conditions
##평균
factors
sk
반원
block
PI
important
내열성
부티
filter
역류
오른쪽
잉크젯
##obile
미래
##인식
수익
##프로세서
dom
시사
Us
수산기
질산
##도면
##에닐
analyz
타일
EM
σ
비교기
##시블
수립
출력신호
영화
구동장치
끌
similar
아주
체류
##기반
폴리펩타이드
##FT
##분산
컨택
이행
광학계
스트리
클릭
##Pa
AV
세팅
RR
수량
##항목
어닐링
낚시
##andom
흑색
옆
스윙
가짐
All
##oft
pp
몰비
+,
compon
Arg
mechan
테르
흔들
일차
RC
##val
##uce
반응액
concentration
카보네이트
NaOH
점성
회피
투사
##유니트
섞
##걸이
믹서
불가
디이소시아네이트
보온
air
써
두꺼
흥
이동국
##uted
바꾸
포르
간단히
합성예
카테고리
##95
##오버
##ek
금속판
##33
왼쪽
내외
바깥쪽
##고무
재화
program
글래스
##amm
부작용
상층
느끼
베인
가교제
##uration
희생
폭발
관여
+.
##토프
잇
알리
##다조
바닥판
##실릴
틈새
흡수성
수문
선체
##전도
##생성
##단백질
##케이블
algorith
1995
oC
인스
##ware
##라지
유화
산화제
플라이
천정
장착부
소셜
첨가량
혼합기
##스아미드
환산
엔트리
모재
손쉽
격리
지닐
형질전환
132
구매자
비대칭
미칠
Ge
냉장실
요동
Ass
무늬
비트라인
##min
pattern
##round
VC
원자로
서포트
클론
360
전자기기
친화
자주
오염물질
뛰어난
가령
##arget
간호사
포도
노화
##ylene
pressure
including
원호
##불린
해질
링커
조회
##레산
TE
반죽
연질
samples
복소
##IB
##anced
일어
##omet
levels
mi
매설
몰리브
수평방향
##충전
##gt
##75
다발
vis
인큐
부력
MgSO
리프
인덕터
심지
##ension
양식
##브로
모바일단말기
외형
cle
previous
용역
고강
옹
일정간격
##기록
##도구
sample
녹화
걸림부
PRO
FL
라우팅
벤질옥시
방음
냉수
연구자
문장
항공기
된다면
##26
##18
홈부
196
발급
앰
##무리
삼각
반경방향
등가
산성
##식별
##공사
section
##관련
출력단
회사
전화기
##금형
comb
state
티오펜
Park
##olution
텔레비전
락토
거칠
##AA
##16
낭
channel
최적화
수화물
##plement
109
HB
##덮개
주관
거주
경영
윤활유
어린이
다공질
suggest
스터
difference
##사고
폴리스티렌
mass
단속
폴리실리콘
시드
##제한
HM
발표
##재질
냄새
##손실
프린팅
지르코늄
나가
##티티
those
##어짐
재의
##카인
##마크
끼리
position
영상신호
단층
발포체
##플러
고농
윤활제
##시각정보
전동기
##abor
권한
##ask
##rome
푸시
##35
정정
국한
##히드록시
모의
##디아민
propert
##eters
##rack
판상
##가니
에스터
SU
사면
step
카르보
압축공기
##굴절
##ii
##캅토
##러스트
day
희석제
줄어들
칫
paper
전장
송수신시각정보
integ
##팔트
##문서
ω
고가
세척수
보빈
인정
헤드부
Techn
##아마이드
##생활
##합금
자명
명명
##피리
페라이트
동의
매니폴드
##유량
처리장치
고서
##eration
런
일회
확립
##안전
OLED
##ermal
##sp
페닐기
웨브
수산화나트륨
꽃
##제공
엑스
투광
##출부
음원
pres
tim
통전
디올
망간
stress
퓨즈
##asing
##신경
resist
유사체
##ino
침입
주택
항생
##테이프
te
ep
알람
미터
자력
##PE
위함
서울
##crib
##제어장치
##ify
적분
수납부
이방성
외력
neg
콘트롤
보강재
소오
init
조기
##ari
##24
프로테
##릿지
횡단면
sal
부동
##파이트
찌
질의
부산물
상표
빼
length
절연체
^
##15
배출관
##렌기
count
while
장애물
##그룹
##ecular
트리에틸아민
Inst
야생
DVD
##fact
원수
무엇
측쇄
사용시
립
활성탄
body
av
##개발
꼭
##런트
에어컨
##방사
올리고뉴클레오티드
무촉매
Access
로크
제조공정
파우더
##페녹시
도서관
항암
드레스
현대
investig
겸용
일예
콜라겐
##에탄올
빗물
single
정하
##설계
\
##her
##리닐
펠릿
str
가의
접착력
보어
조화
곡률
fi
석영
볼륨
석탄
among
고착
메시
맵핑
디젤
LS
쿨
벌크
컨트롤
담지
##ENT
세퍼레이터
##집단
band
anti
제빙
첨부도면
자율
거더
약품
##냉각
마이크로파
볼록부
한지
complex
스핀들
##트랜지스터
도가니
덴
##상품
HE
시리
발광부
any
장입
Mol
AST
Korean
##atist
발판
앤
트리페닐
걸려
분명
퀴놀
이동가능
##이식
##출구
cat
##타르
Let
##스로
##보수
##로프
##iency
스풀
Sub
직업
공명
판독가능
SY
일방향
온도센서
##mission
삼각형
선물
길항제
사운드
##ables
지하수
characteristics
하프
hr
##친다
##히터
##36
compar
##any
##med
##GR
지령
기하학
와이퍼
안착부
옥틸
바닥부
랩
post
지형
생육
##회사
##ures
##기성
탄소원자
이미다조
차선
##충격
반사판
##aj
동맥
년대
1990
##전트
지능
##른다
가온
human
아니하
다이아몬드
IM
다루
Micro
typ
서명
방위
##신안
나무
관해서
얼마
hand
ATM
126
스테인레스
블로그
##알킬기
줄여
##ck
올라
끈
유성기어
혁신
##혈관
##분류정보
Te
without
MO
##ryl
회로기판
달라질
MM
AF
Act
덧
##oma
##수화물
계약
##라우저
NS
돼지
##line
127
외국
mode
약액
##라닐
농업
species
시클로헥산
##원소
사건
열분해
##랜트
범용
Sch
##인다
##원료
조작부
상동
동정
과다
260
##매트
lead
알카
##마모
겹쳐
direct
가속도
##개시
LTE
쥐
하한
##ame
십
##바퀴
하판
cc
Vol
육안
##배양
브러쉬
나온
소수
보스
조금
스트링
탄소나노
크림
region
칫솔
##식품
모세
최저
자녀
윤곽
쌓
맞춰
##동물
##34
술포닐
##모양
##분자량
##시버
acet
##압축
##zym
development
범프
아조
##ott
회전판
##노일
플렉시블
결착
disease
##apan
승하
크랙
carbon
##eric
##TC
##illus
체결공
드레인
At
##케톤
poss
걸쳐서
이어지
top
골수
##구매
Intern
##감지센서
##14
134
아데
랄
종결
근무
경사각
##밀도
##ially
봉합
석유
Rad
##모노
보급
##포름아미드
methods
디옥산
절약
port
These
플랜지부
메틸기
##itud
샌
나타냄
tum
Col
광디스크
성형품
비스페놀
백혈
##orr
##조작
깨끗
뻗
memb
'-(
나일
과잉
외주연
마이컴
절곡부
##확산
마리
CI
경기
인삼
열간
염기서열
capac
변압기
##roup
스케줄링
##ml
phot
단면적
수상
content
BD
지붕
점유
##로틀
##편차
단단
der
변화량
실험군
##ou
이루어짐
Wh
Wi
1994
##사진
헤어
벤조산
붕소
강우
##병증
뚫
로킹
##FR
메카
##곡선
굽힘
타단부
회로부
bo
##ique
전신
peak
재결정
본문정보
복권
구가
옷
몰리브덴
Japan
포획
VR
nucle
RB
멤버쉽정보
콜레스테롤
affect
축열
Sig
포인터
##판넬
##어러
##증폭
집수
번거
급전
##ina
OCH
VP
겨
La
##교환기
실외기
##아들
conn
##umn
##inu
##알케닐
collect
##owled
자아
개개
quality
##ography
##인증
##사시
인듐
이동부
구조식
터보
물성
##ISA
FP
엣
##증착
대출
높여
에피토프
##막이
열경화성
강의
대처
지폐
피사체
Prot
둥근
Sup
주식
접착성
ste
우레
##oxy
동축
다를
133
plate
전자석
##전위
change
묻
##ester
index
흡음
Model
불안
117
나일론
제로
조류
##함량
수확
Glu
-)
스스로
Rb
증권
induced
##프램
레그
커플러
NaH
##져서
TL
골재
APP
##ives
청소기
아스팔트
여자
흡연
##amp
수압
##UC
pers
소위
카복실
##텍스트
risk
아밀
배향막
##글로불린
메타크릴산
셀룰로스
reaction
##iol
스티어링
긴장
폴리에
처방
large
정치
측정부
High
쉬운
##추출물
기준값
관형
아우
330
어려워
용해도
어깨
센스
화제
멀티플렉
신선
##27
##사자
OFDM
NF
의학
미연
스테이터
가소제
하루
##문화
Min
##TM
배설
분진
소금
광전
메타데이터
아라
후드
occur
기회
이소부틸
Au
스플
##뱅킹정보
플로팅
스타일
티아
미네
환원제
펀치
##arly
##폰아미드
grad
##셀룰로
끊
지중
펠렛
Sr
treated
methyl
기류
베드
비틀림
##usc
블랭크
노르
노치
##규칙
270
스테인리스
참여자
근사
시험관
누수
혼성
유럽
작아지
##타입
correl
Des
pack
##DA
분체
커서
허가
sit
Ste
셀룰
헤테로원자
도트
흡광도
UI
결합공
습기
포커스
##roph
와류
라디오
식별정보
##광고
고용
If
average
요오
걸림돌기
측정치
source
열차
탈취
Sim
environment
핸드오버
듀티
열수
어긋
은행
effic
메모리부
Pb
##상표
파단
요금
벤딩
발열체
짝
cost
cases
potential
Network
점점
##동력
레이아웃
공장
노트
광축
##환전
업링크
장면
118
가이드레일
마무리
##라운
##ven
테트라히드로푸란
빈번
조명장치
모뎀
550
consist
##omic
에이전트
loss
시험편
재활용
쿠폰
맞물림
라운드
buffer
gly
##ationship
##onst
성취
280
CDMA
사물
##프라
소독
편평
##해제
묶
beh
초산
정형
##lo
##hesis
##흐름
##경부
승객
플루오르
##ressed
성숙
주입구
주사기
##rit
심도
UL
설페이트
등장
옥수수
##정제
저장매체
플래쉬
광이
가산
조절부
원위
』
multiple
사다리
헵탄
게시
고르
##프린
represent
##어진
로터리
군집
동반
씰
스파이
##실러스
방정식
Rec
유기산
호르몬
펄프
『
Rf
퍼센트
175
##ga
##ool
##글리세
소르
일회용
response
side
##페논
분리기
단턱
##화소
설명도
Qu
many
phys
부적
target
Asp
출현
LB
바라
소각
less
냉동실
아지
chlor
플럭
link
subject
글리세롤
발광다이오드
거치대
병용
등록상표
흉
map
세워
Poly
지나치
##rag
사망
##가노
아제
space
SV
##파트
스크리닝
횡단
Nb
1500
닿
##데칸
Cho
rot
##GS
수렴
엣지
##FET
제어수단
prof
샤워
145
key
디메틸포름아미드
코크
부면
##urb
considered
송풍팬
지진
역량
즐
항산
##펀트
Rh
##ately
pop
발사
트랩
원추
웹사이트
제스처
감성
##istic
algorithm
의견
##환자
직후
gene
coe
수세
일관
tiss
##ention
##cm
유의미
냉각기
평평
carri
질화막
vir
OFF
cyt
악화
블렌드
Be
패션
비수
##재생
튀
##amine
제어함
급격히
New
##de
given
염의
초등
키패드
기에
DH
##way
당겨
과일
가이드홈
frame
무관
투과성
설포닐
내피
within
##패시턴스
절취
access
##EEE
years
nan
##98
히팅
Pharm
프로폭시
After
니코
production
펼쳐
쿼
피봇
##이어티
착색제
##클론
침착
##명령
추후
요건
알킬아미노
해외
DD
괴
exist
describ
지지프레임
광택
일종
API
##탄성
사이토
##절연막
승하강
트립
Bo
##max
에어로졸
##ye
gluc
구와
##지원
문맥
##ift
##resh
ZnO
나이
down
feature
##ife
ACK
중공부
##veral
local
##view
하이드록실
와셔
정점
창출
보건
##테닐
도펀트
황산나트륨
연기
터브
##변속
마이크로프로세서
고정핀
사양
##식물
클래
##munication
공개특허공보
도착
출하
나사부
##38
모이어티
gu
sym
붕괴
URL
IEEE
유기발광
차별
##astic
에스
유기용매
카르복실기
##난방
방사성
생장
##노에이트
PWM
LNG
부극
health
very
##76
density
##성장
세정액
##urther
안트라
동결건조
associated
자일
##ten
open
##혈압
feed
TFA
걸림홈
모멘트
##진동
추론
Ir
%;
자화
밝혀졌
##라민
참고예
comput
이동체
##ces
ELISA
할지
##reg
슬레이브
호환
##iversity
트리아진
##서블
저지
802
##역학
##land
age
흡착제
rece
독소
ND
전원부
read
스캐너
벤즈아미드
##istry
헹
##ream
자성체
##메시지
응축수
##arch
##ronic
##구동부
##opt
작물
고정홈
##버스
정극
초고
내마모
콘택홀
숯
비점
object
NMOS
타깃
통풍
##디메틸
이형
1200
##ape
떨어진
반대측
##ently
gre
밸런스
주거
식이
##구조체
##icle
전기화학
사후
##ote
nec
글로벌
구아
real
열팽창
가드
렌더링
버리
든지
##테트라
##ibility
측방
탄소나노튜브
측판
##발생기
##껍질
##져야
##자성
matrix
제습
Thr
##roscop
겪
##테이션
웜
ISO
caus
##유도
크레인
consum
디엔
출원인
##asma
후퇴
she
정체
등받이
인조
디아미노
프로피온산
미친다
열거
##흡입
TT
고정수단
##버섯
TA
410
##착부
과열
프로피오
##ture
상처
지리
컬러필터
like
유익
ECU
OTP
3000
치합
react
메카니즘
삽입공
##베어링
##거운
흥미
캐비닛
##연산
비접촉
RN
PN
나사결합
##방안
Analysis
##스크류
과산화수소
지압
피험
템플릿
MW
마찰력
Sigma
264
코트
##쐐기
미국특허
Thus
Er
VEG
새롭
점토
RD
expl
output
밀리몰
##혈증
미네랄
시클로펜
η
applied
최대값
감각
##술폰산
식기
주간
##공급부
Id
손잡이부
경사부
보조제
##승인
##렉트
Is
conver
##게이션
비산
calculated
bel
박판
항생제
##케팅
터치스크린
##OF
구면
multi
인트
##ern
##ogn
유니
##레트
TCP
tub
대중
좌우측
##감염
##주의
202
view
규명
##동맥
##uz
##필드
밀접
##르마
주체
브릿지
Mw
비휘발성
Phe
compound
투입구
붐
amount
##78
Then
전기장
참가
##45
##토리
오래
체결부재
분배기
parameters
항온
대물
반송파
사이클로헥실
저장소
입도
착물
요크
광촉매
대폭
점선
##odium
출력축
항산화
합한
##RS
모세관
Eng
##amin
##FP
과량
려고
##건강
리터
자세히
##티탄
폭방향
##만족
비누
##현미경
ax
픽처
behav
무시
이익
Research
저속
DA
책임
1993
백분
흡수제
광도
브라우저
노면
ASTM
심지어
bp
힌지축
정비
약한
엔티티
옹벽
직장
##테인
suc
집적회로
펀드
determined
##영향
공업
디알킬
PDA
π
##ynamic
##화부
##ience
##화수소
인터럽
##콘크리트
이체
그레이
Science
혈압
혼합액
general
통행
대기압
predict
##작위
##99
Tg
게이지
디지탈
생체내
마스
soft
exc
##시계
금융거래
Stud
개설
Vo
제트
라텍스
##포스핀
##arb
##aking
로운
##oS
칼날
굵
히드록시에틸
transfer
금속막
양생
Acc
스피로
디이소프로필
고급
도와
유화제
스탬
error
엠보
##케이터
한데
Type
enh
저류
##나아제
Eu
##억제
유산
뮤
리프레
언더
prop
대장균
생긴
자궁
아미도
color
계정
네오
화분
##사회
저작
Tw
짐
스템
암나사
콜로이드
페닐렌
Effect
드러
리본
플렉서블
단가
원주방향
폴리옥시에틸렌
벗어
본래
릴리
##sc
겉
##emb
MPEG
관광
420
##ajor
##odes
신용카드
155
##ruction
무작위
플랩
관성
후단부
트라이플루오로
##set
다운링크
##포장
배송
stage
##폐기
##세척
직전
##결합부
고정장치
##GG
완벽
구할
살포
결점
##ters
칠
져서
##자극
gas
2017
분사노즐
##발명
주머니
시클
비콘
상하방향
펜탄
##ochem
##설명
si
influ
포괄
유리판
144
##면체
인플
##13
mes
상담
과금
##12
텐션
고추
cross
Lt
EGF
##rane
##ton
노브
혼련
곧
워드라인
체결구
##ATION
공하
세탁수
여겨
도파관
##엔진
비만
데이터선
RGB
매장
common
GHz
결정립
changes
##유동
##공법
##ECT
Digital
##분해성
##ules
##erapy
FC
지난
플럭스
수록
##중량
speed
column
감겨
##oor
##apor
채우
##아세틸
구름
##이싱
##옥시기
##ta
디스펜
지환
properties
##직경
국민
멀리
스탠드
##접착
아세트산에틸
마사지
##프리
##루션
service
전시
##ICE
##que
다각형
클로닝
##알킬렌
설문지
##ually
##셔닝
저항값
속한
항중
##사미드
##청소
이송부
Bu
인젝터
시대
배합물
절편
NFC
##풀리
상대방
##영동
##umin
모르폴린
who
##pling
scale
follows
기후
뜨
단말장치
치가
##리튬
four
soc
일어난
뉴클레오타이드
판매자
쇼트
phen
##let
스트로크
뜻
받아들
천천
대용량
##atter
bet
이동식
##idence
204
달라지
퀴나졸
일기
##표시장치
긴급
PF
설파
송신부
##aving
실록산
자재
##리학
재봉
쾌
레티
폴리이소
보행자
물류
절개부
서식
진료
수소원자
배출부
보호기
헤테로시클릴
천천히
SPS
의복
##자동
##인구
듀얼
쐐기
놓이
application
콘텐트
sequence
본인
그릴
Immun
공급장치
배당
##기법
##rich
하층
##74
##플랜지
##RD
요입
저해제
##용수
디옥소
혐
’,
wave
초간
수차
역사
제대로
기술자
##reng
NA
immun
##ATA
원칙
##ublic
input
발병
두꺼운
턱
##och
##고기
##조절부
Ox
##paratus
systems
##vant
맥락
갈색
##acillus
자속
침대
195
##폐수
##xim
##cin
##road
광량
##간다
구해
culture
##당류
disc
##ufact
점진
##소통
니들
찾아
τ
##스펜
송금
가교결합
대면
##레르
징
케미
##조류
schem
##resp
용매화물
##jection
##inical
##시점
선택부
무방
램
##rength
negative
접수
##과학
##공급관
트랜잭
##라인드
라우터
호모
##IA
119
소지
##회수
넷
연삭
FT
아세트아미드
##력발전
카테터
heat
투약
Dev
여행
브로드
##오차
##보조
1992
##na
CV
##투입
슬라이스
기이
random
##카르바
브리지
거품
##리스트
##PH
##지르
##지부
측정기
배수관
광물
관절염
relationship
결실
놀이
그라운드
##내부
고상
라미네이트
##실레이트
실측치
구한
##열교환기
eq
sum
##isf
술폰산
발아
니트릴
비게
##though
maximum
means
염색체
##gc
마킹
##수량
트랜잭션
129
코폴리머
앞쪽
ver
유지보수
RO
액적
TLC
days
품종
##obal
직급
##파장
fac
Dr
회전부
팀
연화
롤링
냉간
##DP
##onding
above
##32
창의
##etra
레이더
세금정보
Bio
##속사졸
cre
sulf
fin
방제
165
##els
Cd
linear
중계기
##아미
차분
진정
경감
입력단
상의
백업
피처리
근위
부탄올
sem
청정
medium
750
이너
권리범위
CCD
##omer
##ke
복용
quant
##ries
##aging
256
kHz
Ant
파티션
hist
착체
pass
PVC
소변
##좌표
모자
##itation
면역글로불린
##질소
@
##cript
##UL
142
전기영동
##응답
mic
인터럽트
성격
서빙
Service
베이스부
##ersion
이차전지
node
##ah
화소전극
비즈
##ering
##ACT
키나제
##itch
예금
당연
oxide
내연기관
141
히스토
전자부품
lip
angle
##drome
340
수화
element
리니어
여액
times
점화
촉진제
유한
-[[
내재
kD
용강
##ero
DEV
두부
쉬프트
엽
생성기
샌드
##피페리딘
델
##aling
프로펠러
연산부
다기능
##수행
제휴
##ending
야간
추출액
##oding
땜
##시키기
oil
GaN
시켜야
식염수
병행
DI
걸친
##ret
Nat
물탱크
hydrox
피검
##asc
곡물
Sw
합리
##AGE
##ended
136
편성
##티스
##인돌
대차
##verse
열선
희망
##퍼런스
short
##어리
상관없이
리테이너
사이클로프로필
154
디온
내식
174
##코트
Aut
아마
El
##메이션
His
ut
에틸아세테이트
글리코
다이어그램
##로운
##plications
부가세정보
스로틀
complet
리보
버블
일어날
Soc
right
##AND
##간호
이성체
말뚝
pul
동심
##izing
옥타
취부
모아
내역
아이디
##제조
탐침
synt
##메톡시실란
gra
Ltd
SDS
silic
덩
궁
웹페이지
에틸렌글리콜
마운트
매개변수
##정책
##스트레스
them
일정량
바아
디벤조
##옥사졸
중간부
판단부
췌
##ush
##도서관
이란
##ocus
모식도
반응조
기생
major
끓
BR
해체
공식
##혼합
##ults
용수
가전
중심선
제조시
##구역
완충제
coll
오스
장공
떠
##ividual
공진기
측정장치
프로테아제
##CP
자산
CNT
로그인
전자상
글루코스
##질러
감기
소방
##자재
1991
금지
수용홈
세포독
problem
입장
수입
##ental
주민
before
##데하이드
대리
반구
head
배양물
##덱스트린
황산마그네슘
##aph
거쳐서
페난
셀룰러
응급
하이드로클로라이드
제약상
크레
IB
섀
지급
##read
%.
염산염
낼
집전체
구동수단
재난
우산
확정
잭
##차원
콜로
wid
입력신호
시이트
갯
티올
THE
##acc
인성
EX
딜
mal
스트렙
결합부재
입력축
##EF
##티딘
138
##함유
홀딩
mechanism
물건
메르
##병원
표면처리
누구
SMS
박막트랜지스터
폴더
데카
##be
##뚜껑
고밀도
반대방향
##시경
액정패널
##수송
rele
##fl
##ouse
developed
prom
##uble
bit
가깝
separ
열량
산출부
musc
화상형성
display
##atin
##하부
땜납
카르바모일
invol
낭비
##bo
ρ
마이크로폰
##퀴논
이완
전자상거래
객관
##관능
proced
DV
plant
마케팅
혈당
AG
circuit
가스켓
##As
NOx
스트리밍
중금속
기억부
LCMS
범퍼
##ves
글리세린
시클로프
##ND
잘못
포지티브
충전재
소르비
대각
그물
감지센서
Ce
부트
##다공
파라핀
추구
저장실
Cur
레이저광
205
several
##헥사
회전식
##폐기물
소망
##압연
공여
self
metal
고화
사무
결핍
##염소
스트라이
152
known
옥사디아졸
원본
ML
스크루
syndrome
volume
코크스
결정부
붓
##대상자
탑승자
adj
##코르
##카바
HV
##37
창호
rest
##철근
##Al
래트
##피닐
상실
스냅
##수관
##RP
##오일
DO
친화성
접합체
Biol
할로겐화
병합
가로등
ion
클리닝
니코틴
이미드
이동성
CLK
밖에
극히
##염화
650
브로마이드
Fab
스포츠
whe
필터부
##하이드록시
##주택
##ris
PDP
HO
무한
프로필렌글리콜
##for
##무늬
첫번
소통
스폿
##결제비율정보
5000
주연
defined
패스워드
##atively
밀링
##타제
isol
##인성
##퓨란
sensor
알데히드
조합물
블로그정보
만나
##ste
소포
발진기
##65
인도
처치
##Ga
서스펜
bound
##FE
SiC
DN
And
역전
조종
공급물
이용한
줄기세포
chemical
알레르
IFN
statist
''
##apt
Group
##ars
주축
결합돌기
assay
온실
후처리
홈페이지
##포스페이트
디에틸렌
스페이스
금속염
체내
변인
##르마늄
틸팅
##네트
##omen
현금
자계
고로
항공
차수
##17
이룬
확대도
##캡슐
아크릴아미드
base
설정부
mut
MIM
##ances
급기
dam
##UI
식사
탄산칼슘
이진
FA
call
##고정부
VEGF
영향력
변조기
캡쳐
##로겐
MN
지침
포스파
containing
결과물
뚜렷
VII
페인트
Vs
차륜
##ideo
슬라브
랜드
불연
tumor
홍보
의사소통
FS
프로판올
표준편차
den
꾸
전면부
Process
##brid
개도
hyp
Dif
Time
##전계
mov
STA
National
여유
뛰어나
편광자
##프로폭시
배기관
리모콘
##접합
##ided
가축
종단면
도식
Ile
측면부
회의
개방부
##효능
way
##iving
BB
마늘
카르복스아미드
CMP
##컴퓨
원뿔
옥살
블라인드
질수록
chrom
특허출원
##39
수로
시설물
고등
토사
assess
방진
○
아스파
광중합
피리디닐
일방
##루프
스키
연락
벼
κ
표피
##ploy
##ancer
ATCC
올바
모르폴리
내리
##플라
direction
137
##프로피
아크릴로니트릴
토큰
회전시
다이얼
again
열리
실증
한층
레진
절연성
선호도
광고주
##문제
##부민
che
experimental
wind
##가치
순방향
탈부착
##시기
복부
force
유압실린더
거울상
단수
인원
아데노
***
주사선
##oper
밀어
늘어나
안티센스
체험
친구
ᄃ
전자빔
납땜
광대역
설정값
images
파스
##pect
손목
배럴
원자수
##배지
Sol
##피드
배포
Test
심한
role
domain
prec
중개
앉
한도
##메타크릴레이트
BT
##크론
처리수
피트
중간층
너비
문양
분획물
So
##DC
oxid
석고
further
##ts
efficiency
사출성형
##very
공연
맞물려
fix
개요
측단면
##연결부
DMA
##itude
스트랜드
어머니
영어
##ings
##기계
##대상물
cut
##교통
##itrogen
##그라
아치
부싱
##68
JP
총량
결정질
lear
##유전자
폴리에스터
궤적
##세지
루트
말단부
실드
Sec
##ATUS
고혈압
##시클로헥실
통보
시클로펜틸
RL
Case
버스트
피란
고는
miR
기준전압
Reg
##UM
211
비해서
##제어기
-({
변기
##젝션
individual
##알콜
안면
##락톤
fer
##부티
initial
##방출
플랜트
연도
행한
라이닝
그라우
화이트
##pose
참조부호
antib
행해진다
헤테로시클로
##면역
presented
would
전립
말레산
저장조
측방향
제반
##ored
##inyl
커튼
해충
매입
수표
시공방법
소결체
##ystal
카보
관통구멍
힌지부
증발가스
알칸
##판부
민간
incub
항복
Cs
췌장
##----
난연제
의식
PMOS
체크밸브
LPS
합산
개스
strong
메틸에틸
EDTA
hom
루틴
이룰
reference
우유
스파
##로신
##스케
가방
고령
strength
active
글루타
##ont
전도체
conc
liqu
레귤
Cal
화질
##돌부
cycle
회전운동
내마모성
가로질러
하류측
151
##현실
VS
스위칭부
오프라인
헬리
##xt
일산화
인산염
iv
Inv
생명
전자문서
##행위
212
비경
Cent
##ished
diagn
distance
polymer
인테
gel
충방전
마그네틱
글리시딜
쇼핑몰
Tyr
유방암
프레임워크
집속
##골재
인상
애니
management
GM
##티오펜
##raw
##ows
결혼
When
커버부
포지션
thick
관상
supp
끝단부
##프로판올
COR
미량
리벳
##트리아졸
걸러
site
left
버킷
아가
eNB
관체
variables
제상
무릎
용품
에탄
돔
풍속
approach
Red
부딪
도통
균일성
유의성
coli
##olic
역회전
analyzed
사멸
##생성물
Sur
##토류
memory
##owledge
방화
##....
레퍼런스
상하부
user
surg
차트
끼워진
##컴퓨터
##풍기
아무
##디노
염화나트륨
표시패널
헵틸
##orage
##anning
operation
음파
집게
거부
상피
##비트
나열
rol
승압
와인
열림
부시
##매스
##라아제
203
film
##염기
아이스
후자
흔히
##로봇
detection
〕
창틀
인터페
##발현
삼중
good
##other
##Si
사이버
##교사
##chie
감광막
다결정
##공급장치
공기압
##achine
선수
types
젤라틴
es
잠금장치
유리섬유
Eq
week
##ped
남자
엠보싱
Organ
오직
##팡이
망막
continu
##lish
##로딩
방열판
밴
저장장치
슈퍼
vector
정전용량
병변
게르마늄
ir
플루
좌석
조치
clos
##rast
NaHCO
드래그
HIV
탄수화물
회동가능
서스펜션
comm
추출부
열매체
APPAR
씌
엉
Sign
Press
differences
corresp
GR
##하여
##ESS
개시내용
##낸다
effective
reduced
발생시
투석
##the
선재
products
스테레오
##aster
전공
대학생
전립선
COMP
포착
KS
CE
##ella
응답자
거대
##방송
##eral
취할
##촉진
SI
particip
날짜
고조
모르타르
안착홈
비표면
동박
받침판
Mem
##ources
중소
얼마나
##rations
APPARATUS
##속도
##기부
백분율
....
infl
진로
지지축
양육
Lo
##클로날
액션
DRAM
##신산
폐색
안치
##19
##ots
##설파
색도
레코드
satisf
디히드록시
##저장정보
이드
배수구
DEVICE
종래기술
resid
가루
구이
carb
심하
##64
메틸아미노
후측
PK
##상자
enzym
XX
이미징
바뀌
##atch
직조
시차
EB
스테이
키메라
공액
타르
더블
위치결정
벤즈이미다졸
##시클릭
불변
DSP
미니
근본
서랍
##ptom
안전사고
Ed
resistance
접근법
##bs
##확인
225
단조
##ason
골프공
카복시
##anel
상향링크
NT
해독
##방울
##hydro
did
도전체
커뮤니티
##지름
페난트
Part
미용
제공부
"(
##DR
내화
해저
conducted
근로
고기
##met
blood
##닐린
차이점
MAP
한약
##에노
보도
##트라스트
Gln
##주사
칸막이
##uster
버섯
157
도면부호
처리기
##체제
squ
##rateg
폴리아크릴
Cp
##개폐
불규칙
언제
풍력발전
디스펜서
주도
나이트
피팅
틸트
독일
##cription
외통
##벤즈
음성신호
수용공간
곰
룸
described
##otic
리소그래피
증감
RH
##히클
심부
유기상
연골
##투과성
##이온수
Sb
SAM
뱅킹
constant
격납
히드록시페닐
부속
그럼
Io
내시경
활발히
퍼플루오로
비료
회전부재
achie
##iness
르
띄
##ACK
##밀리
위장
수많
002
햅
##세대
인디
특징점
가압부
맙
독서
##utes
##래치
전국
지지봉
스텐트
개정
##bach
아파트
발화
아토
digital
못한다
당시
복지
문자열
increasing
마이크로미터
미크론
세탁조
고성능
decreased
emb
느낌
equation
정제수
185
외환
다섯
실습
경쟁력
ABS
##감지부
bacter
변색
책상
표면적
어류
##비게이션
체제
EN
##au
liquid
대립
##황색
최외
materials
비히클
##차트
##반송
늦
퀴나졸린
약하
##투명
마스킹
##클러
인스트
##iox
CMOS
##개선
냉난방
kDa
510
레드
분석기
Phys
##소판
표층
Fil
media
끼우
실리케이트
닙
매일
피험자
Φ
도데실
앰프
prep
공학
##온도
##ley
감쇄
직원
Since
소득
##000
Asn
PVA
노트북
month
직접세
공작물
FM
가벼
##unc
다이하이드로
absor
다이어프램
분석법
수출
고정편
##티닐
히드로클로라이드
사용상태
조절기
계절
멀티플렉서
MgO
히드록시프로필
More
높이조절
##수기
차단기
포크
꺼내
세분
벤트
반도체막
##루엔자
안구
주변부
라디에이터
재치
BH
리플
차속
성향
금융수수료정보
##둘레
간접세정보
##DS
용역정보
Ev
fam
시스테인
깅
부톡시카르보닐
이산
커패시턴스
##orb
##상부
회선
스터드
##에탄
룰
bone
나타날
##트리스
캘리
##격자
tissue
BM
배기구
수개
유추
들어오
cop
살리
실천
인증서
optical
##cal
막두께
##블릿
Ru
나노튜브
WT
제곱
보편
인프라
전극부
방울
사방
correlation
고농도
##85
orig
##표지
할라이드
멘
##ateral
복권정보
코스
다진
Rel
Hy
EA
Acad
HL
##레인지
떼
##rial
구동기어
딥
화상형성장치
내포
##목적
##소비
경피
농촌
##배출구
##혼합물
##발생부
유입관
##피롤리돈
트렁
잘라
code
공용
감속기
##포르
##yan
By
피동
##사슬
당기
measurement
바이오매스
##cuss
##UCT
고정대
분지쇄
동종
146
##로일
반시계
##소음
발전소
Display
중수소
##sequ
부정적
패키징
##설폰
010
중립
##ependent
시클로알킬기
절제
magnetic
쉬워
캐리지
치매
타인
Power
인광
example
아우터
recept
어디
웹서버
∗
##변위
결합력
##글루
processing
디카르복실산
펀칭
KR
불화
FET
DSC
용탕
식재
##모스
스케쥴
애니메이션
fail
Pack
피리미
녹인
##ireless
ge
EV
웨이브
스러운
껍질
시트르산
창업정보
##29
##abil
##oul
파열
##키스
기부정보
녹음
탄탈
Vd
인터리
구동기
덮개부
indust
430
배플
vs
유산균
##NO
밸브체
펀드정보
연직
원사
직립
오수
소실
서스테인
##버시
입원
hem
RPM
안내부
영업
BA
kW
tt
kPa
sil
크실
behavior
Information
##인산
웨이트
신축성
재전송
added
가한
입찰
Compar
benz
인스턴스
Low
알킬렌기
electron
start
산화방지
Protocol
비경구
##omy
Mc
튜너
수온
겹치
나노섬유
여과액
매니저
eV
톨릴
약화
침출
CSI
덩어리
core
op
행거
탄소섬유
go
콘트라스트
선도
hel
##효능감
특개
엑스선
##ura
바나
시아노기
remov
어두
##광원
석회
벤조에이트
##홈부
1989
Program
한방
##포인트
##31
manufact
고효율
작동상태
sodium
##지표
전도도
햅틱
말초
beam
##타이
대조구
possible
Par
##89
##입력부
radical
##어러블
primary
models
LA
벗어남
유리기판
지배
patient
진탕
fore
##itis
웨어러블
알부민
휴지
바스
중탄
난연성
hard
##alk
ampl
트렁크
의약품
백혈병
ADC
component
##inary
기준치
상쇄
Cys
VIII
vi
##인구직
구인구직
##orld
CAS
EU
Pe
멜라민
레귤레이터
thermal
따로
유일
activities
갈등
싱글
이동통신단말기
보였으며
MMP
expressed
##개시제
##다란
UP
층상
MV
켄
부텐
glyc
##ird
가졌
수나사
드로
와이
강유
본문결제정보
탈이온수
food
범위내
시선
made
##반경
##레스트
solid
활주
트랜스퍼
출입구
##hol
배전
떨어뜨
sin
곤충
##ulate
진화
##ators
밥
demonst
##원회
자발
겨울
##RI
입상
복합재
오염물
focus
이어폰
비트스트림
LM
입수가능
Mat
일어난다
Ald
습니다
selected
##TV
냉각장치
##agen
인발
##미러
##ble
생분해성
simulation
##박막
받침부
Biot
생리학
댐핑
##지반
dry
##)-
비등
옮겨
패리티
절결
##배기
siRNA
##글리시딜
##무수
LO
Pat
##지연
불휘발성
광신호
쉐
에틸헥실
부스
동위
반대쪽
용접부
학업
##변속기
##폭사이드
required
재단
##커트
구인구직정보
전원전압
분주
##낮이
탁월
##진단
##변경
##용제
난소
##opl
##inase
##FS
에미터
##TRU
ring
reduction
##배치
헵타
레아
트레드
판형
SG
##케이싱
연쇄
even
현상액
미들
SNP
##agg
농약
높낮이
CSF
impl
##리노
인과
##ococ
상표명
성상
Opt
옥시드
좌표계
##ained
넘어
헹굼
Gu
##ving
라세
VDD
##BR
JIS
Unit
특징부
포스핀
닭
##측면
Sam
내부공간
접혀
이탈방지
162
스펀
TX
끝난
fraction
폐열
##ining
〈
서브시스템
채워진
케이지
급여
##CR
##경사
##ifier
무단
글자
##시안
수소화
실용신안
힘들
TG
반사면
기저귀
배위
##하우스
##임계
교과서
eng
독특
physical
Memory
는다면
피어
스크라이
finding
radi
면역원
상류측
glass
CONT
##다만
##플로우
용융물
심벌
크리
##피페라진
##체인
믹싱
전제
바이알
모음
히드록시메틸
interest
gr
clinical
일산화탄소
##rient
주지
SPSS
인산화
##방향족
하향링크
##멤버
주방
부드럽
nit
밀려
##til
##seud
피벗
식용
##NR
회전방향
결제증권정보
온열
발포제
가열부
##테나이트
날개부
스타트
매출
복소환
원장
단체
인플루엔자
싶
ca
스프로
결제증권수수료정보
##플롭
결제외환수수료정보
larg
빅
regard
플로어
가연
##변조
발생장치
##미트
셉
##iform
noise
돈
내비게이션
담수
혈소판
##46
여름
씻
산화아연
원심력
침강
215
##gment
위협
##받침대
##CD
##직물
잔량
킬레이트
nat
##osp
강선
철판
아디
티켓
펌웨어
##ocyt
펨
기압
DIS
욕구
엄격
합하
##모르
##uck
##주석
WTRU
##다제
##트로피
역상
복원력
##차지
yield
훼
PCT
points
광원부
##아제핀
158
대책
technology
일괄
스틱
페로
혈중
반대편
난간
스레드
kV
168
열원
컨디
143
##입체
〔
사육
악성
coefficient
##ula
since
##주행
membrane
도형
트리플루오
제기
복강
아키
생식
seed
##ump
##꺼기
수은
##생산
무리
XML
super
미정제
GPC
파티클
Mon
232
브라
avail
발송
에피택
agent
소멸
선명
뒤쪽
타워
회전각
##원단
균등물
bus
##카본
전자장치
##실화
##브로모
취해
against
##ai
움직일
##arent
용존
##ertain
트라이플루오로메틸
대류
ET
겐
222
MG
접힘
##iments
서브필드
용이성
##aser
쾌적
함체
스코어
편안
##ehicle
##amide
##era
fem
문틀
pain
##저장부
비즈니스
text
카복실레이트
##ameter
##세인
잉곳
304
묘사
고정돌기
상등
교각
##롤린
술폰
##의학
감응
##rip
룩
Em
##아세트
##ister
being
살충
수십
serv
앙
eas
psi
520
##변기
노동
##실용
##aring
열매
hal
프로젝터
내통
##CI
닫힘
내압
처리액
푸쉬
##리트리
0001
레인지
##ctt
사이토카인
KOH
LAN
리셉
Exp
홀수
빠져나
페이징
희토류
빌딩
##시장
One
Cron
등록특허
##관부
MF
하전
람
보습
헤테로아릴기
provide
구상
##ooth
##ocal
관제
두껍
발색
배아
pract
연습
composition
배출량
MIMO
Aldrich
CG
##펜타
##ones
pow
헤테로시클릭
##베이트
##티타늄
분절
GUI
플립플롭
##공간부
술파
Mobile
TEM
스폰
반출
254
어퍼
토지
수산화물
##카르복
한글
저수조
##유형
approxim
##어셈블리
크래
prog
재발
prevent
##증폭기
조선
오버랩
##루스
프리앰
##시키면
해리
1100
설탕
다이클로로
148
chain
Health
실수
KB
LL
##너스
중요도
ray
선상
그라프트
##urs
합계액
비전
##luor
##쓰레기
명확히
Cancer
Out
##상승
##통제
formation
외상
cou
##으므로
오버헤드
reflect
##여서
SCR
알콕시카르보닐
유역
양자점
고품질
##검색
가까이
외과
##재그
##79
##ometer
파종
쉴
##afety
respons
치유
CAR
CK
지그재그
##vey
스트렙토
SYST
메르캅토
##사이클릭
Spec
strateg
##CL
##orem
intro
미반응
층간절연막
프로파
멀티캐스트
hex
##구리
QoS
웨이
##uel
오스테나이트
##place
dose
##ROM
아닐린
불용성
##제어신호
지퍼
206
팽윤
가시광선
##DI
풀림
##시아닌
301
comparison
##수명
형질감염
##증진
##냉매
##산화막
사제
럼
정기
156
Technology
##eloc
킨다
##ope
flex
클리
social
려면
매끄
상반
면상
첨가물
무효
메세지
##무수물
166
##이미지
##공학
hour
##정화
비표면적
송수신기
GB
세포내
스킨
부틸기
##촬영
increases
Rt
꽂
홀로그램
##포늄
wall
짝수
점막
mel
로워
무기물
특유
##환원
terms
aR
●
...,
증점
강철
##메모리
얹
제너
##otal
끌어
향미
184
연출
##접점
##리소
##TT
ol
##idine
제초
피가공
열린
가압력
안내홈
##판매
##문자
빨리
##감소
분류정보
##rap
##상수
##rin
야채
컨텍스트
##용접
머리부
mil
graph
점멸
concentrations
선행기술
++
center
confir
##경험
##esis
##ethylene
impact
폴딩
공급자
커버리지
향기
##어져
테트라졸
##itting
MOSFET
##판재
인다
악영향
실리사이드
phenyl
380
##부탄
PVD
164
비제한
차양
스트랩
LR
scheme
students
##청소기
가리키
파이버
비제한적
##스턴
ke
contact
##에탄올아민
According
튜닝
##rior
〉
성립
##전략
fiber
##기상
Ep
송수신부
natural
Det
##ems
태블릿
폴리싱
흰색
##플라이
흔들림
##oot
반해
##ributed
태양열
##보정
넷째
mill
##러짐
조절장치
밑면
년간
보디
자중
##kn
255
굴삭
실선
CaO
##In
##itical
신호전달
속한다
##cence
자본
Instit
앤드
표시판
##idd
153
반사광
##행정
닫힌
CY
##위험
고해
충전기
Labor
요리
방부
208
ha
440
##디드
적립
포름알데히드
##술포네이트
##ense
##네이션
히드록실기
진동자
##itt
장갑
##urity
##ologies
°,
장방
동체
percent
##22
147
난류
stim
##강화
사이클로헥산
본다
##리트리톨
##thal
상태도
홍삼
탈기
214
##저감
거기
낮출
components
실무
##수집
바디부
얼라인
edge
시인
왕복운동
마을
열기
이미노
tool
kb
시청자
모노클로날
이를
카르복사미드
0000
퍼스
사이클론
등간격
##ZO
communication
Cronbach
코돈
Char
컨텐트
knowledge
##스피
삽입구
글리신
출력전압
이속사졸
암종
##토크
##텍처
인덕턴스
가열기
발명인
##agram
자이
케이크
불가피
성형물
particular
##드리
중독
청각
기원
파이프라인
수수
궁극
employ
##성기
토션
̊
Light
##신저
클래드
##포터
실험실
##미션
Ul
soil
##iety
##브래킷
##rical
technique
##페닐기
플러
폴리실록산
Gr
떡
이소퀴놀린
##정지
분석부
diss
##라이저
재차
##terior
##랭킹
COOH
멈추
##ulations
better
University
##프렌
포도당
눈금
##ca
FE
흐릴
페닐아미노
정맥내
간헐
폴리이소시아네이트
293
디렉
헤테로사이클릴
파스너
NK
수취
##rete
서지
serum
항염
원유
alk
시리즈
신생
가할
##프린트
Ia
압력센서
고조파
경첩
멈춤
##ather
단시간
1988
strain
##스틱
##essage
SK
히스토그램
유입부
캐스팅
##igen
##옥산
Line
채팅
나눈
##벤조산
녹차
루테
EGR
##이머
접시
출력단자
diet
취업
##estion
알라닌
스테아레이트
Device
limit
IoT
spp
테트라키스
catal
##ournal
가이드부재
중점
NAND
이소인돌
상부측
나란히
##izer
반감
흡열
전류값
이소프로판올
콘센트
mobile
##obacter
##장착
ult
Sal
dependent
흡습
암세포
그리스
동작시
매트리스
오랜
life
아키텍처
알킬티오
##aled
전이금속
수크로
맺
fat
enc
##개념
util
INT
설폰
부압
population
##슬롯
inflamm
세포외
Gene
작동유
Although
압축강
##와이어
2018
제고
Je
식중
전산
역학
mice
자격
아다만
850
앵글
찬
XRD
환경오염
테일
list
##순위
##직선
반입
##설폰산
##공구
티에닐
화학물질
CRC
172
게인
이른
증폭부
##PA
기준점
완만
##겨진
Results
고정볼트
탄산칼륨
Rx
임베
presence
##cast
증거
영국
Ts
곱셈
##uture
개입
붙이
161
parameter
혼합비
세공
스플라인
가져오
cate
코일스프링
##란색
BO
각형
##셀룰로오스
조형
CHO
입금
클럽
Tm
ethyl
넘버
##reshold
From
경화물
유무선
휴대단말기
우회
폐암
단차부
뒷면
졸릴
1980
##옥시드
##세닐
##내역
베벨
운영체제
##스타틴
해시
스태
첩
##약품
가슴
variable
via
##발효
##켜서
코팅액
curve
종축
Based
implement
크실렌
##zy
##카복실산
RI
인위
##플렉터
##수용부
인장력
가열로
콜로니
프리캐스트
땅
##시료
139
##종양
FF
DMB
열연
relative
처짐
PLC
##마개
고정설치
티에노
∙
##방정식
##hest
항산화제
##vement
##EX
transmission
##ty
레시
DF
004
탐구
추종
표출
success
유기체
##면부
나이프
에틸기
어음
없애
##프레서
브로드캐스트
##조절장치
##정렬
##acy
구로
##oe
마그
파지부
스탬프
htt
##uro
full
외향
##알루
취입
당좌
##에스
480
##계통
전단부
##벽체
개폐장치
depth
캄
갯수
스크랩정보
비교부
##업무
고정축
dip
분쇄기
degree
ide
##CN
##off
예술
프리앰블
##술폰
##PD
##아세포
정수기
텔레비젼
외래
감자
##세탁
저전압
고지
작품
##raining
입력단자
분실
##평가
천식
변할
##anth
분취
치형
스테아르산
리그
대구
방어
##카르보네이트
aa
care
card
후륜
dat
오버레이
genes
작동시
자면
##ococcus
캡핑
최소값
킨
가로지르
SYSTEM
##ivision
##ee
##icult
module
팔레트
##aneous
207
게이트전극
구동신호
auth
HAR
child
대퇴
##여과
수처리
##연장
보증
데옥시
다관능
Pers
로움
아마이드
##다운
축전지
trad
생산량
전력량
삽입홀
커뮤니케이션
치밀
specim
EF
##바늘
다각
구한다
닫히
project
주일
##지주
에폭시기
##지그
포일
부류
수광부
향한
ill
간소
##rict
마르
알켄
MI
Cap
시험관내
PX
proteins
Using
Choi
##iate
이슈
protocol
훼손
##재배
##요구
시계방향
중심점
보고서
sus
시안
FB
##lying
organic
메신저
##버너
충격흡수
##back
Frequency
screen
##ytic
하의
221
뇌졸
1987
surv
취미
진열
capacity
클수록
290
인터페론
Sl
##농축
##뭉치
having
시야각
아릴옥시
turn
미흡
##by
ATP
도난
라우릴
무기질
정방향
결합구조
수계
Nature
GA
온도계
Rc
##pha
히드록시기
갈륨
빠지
functions
##페닐렌
SNR
##전화
##역량
학술
무전
fab
##뮬레이터
##커싱
펜타에
스케일링
판스프링
##ducing
지지편
전원공급부
이루어져야
upper
원활히
##인쇄
액화가스
##오크
나뉘
##립트
Yo
evaluation
레이저빔
아스코르
##파괴
감지기
뉼
##oxide
관리서버
시험예
FGF
recom
고내
##QI
##ventional
Molecular
심근
drug
149
나와
learning
본드
231
연료탱크
##컨트
muscle
에스트
참고문헌
였음
market
##구체
각막
transform
apopt
inhibit
Proc
도서
칭함
BI
##터빈
배율
##LY
##sh
##ref
분류저장정보
ww
약칭
Ha
상시
##ef
트리클로로
##대학교
탈락
합쳐
집합체
흡수체
내로
final
##ano
score
유인
##stand
##검출기
##수조
섀시
이소시아
따른다
리프팅
COO
##손상
storage
화기
피페리디닐
##ij
independent
송금수수료정보
functional
intensity
이체수수료정보
몰입
dl
mesh
마취
##elocity
##aining
##도로
yl
##에톡시실란
소둔
당김
zero
포름산
delay
##CA
mac
호기
모사
binding
메이
안정제
노래
과부하
어두운
수평부
도선
오렌지
배정
위사
재해
잉여
Inf
상변화
회귀분석
buil
Ext
카피
게이트선
235
엔트로피
Dist
흡입관
뷰틸
정사각
##콜린
estab
먹이
메모
임신
##표시부
다당류
대개
전망
재고
SOC
비트선
위주
덕
대각선
곰팡이
트위
##네트워크
assum
##락토
상품권
situ
##unter
최신
tube
냉온
Germ
##절차
공급량
공통전극
오링
##84
반발
도광
##황산
의뢰
염이
dimens
림프구
Max
최선
오퍼
업로드
투시
+).
##식별번호
시뮬레이터
302
경관
이물질
벤조디
MSC
##irect
##피리미딘
심층
초전
원추형
collected
마그네트론
안드
초임계
##통계
복합재료
불꽃
induct
##ites
상청
촉각
배출공
바닥재
##OVA
스위치부
훅
보강부재
컨택트
Num
procedure
##inant
전송부
봉입
단선
##첨가
출입문
광역
##ulator
페이퍼
##하면
일본국
저자
##outh
음주
육성
공급라인
##천연
태아
##폴트
플루오렌
identified
educ
트라
덱스트
바지
##itching
econ
유기전계
##클리
##수납
식물체
##신청
외환환전
가부
비동기
##발생장치
ᄀ
바텀
recent
##69
하드디스크
##저하
##vanced
##2/
자살
감미
HER
Bar
시계열
알맞
현수
##bor
체질
배우
벽돌
public
행함
잔여물
반사경
부드러운
optim
탄산수소
오늘
디폴트
끼움홈
팝
su
아릴알킬
대입
##mer
세린
외주부
장방형
AH
##영양
뉴스
필기
##bl
www
상등액
gap
일렬
##레이미드
##rene
reve
수평면
분해사시
벤조트리아졸
##유출
##핸들
아님
바실러스
마진
못할
농가
##캐리어
##icon
쇠
##to
왜냐
반도체장치
##운딩
외환환전수수료정보
피롤리돈
##솔린
공개특허
차세대
히트펌프
솔루션
리시버
generated
결손
연결기
실내공기
탄화물
들어올
난수
##완료
##로니트릴
미미
패러
RRC
Tris
검색어
폴리에틸렌글리콜
apparatus
##72
##약물
시럽
승차
##규모
과실
much
necess
##리듐
동화상
단자부
##LS
간염
핸드폰
##셔너
VB
푸란
푸마
놓인
참조번호
뒤집
continuous
see
의무
##혈구
does
194
형강
##aces
포장재
소속
##icity
##회로부
메탈로
234
아바
개스킷
동영상정보
shape
##니딘
차가
Da
추력
・
결합체
퍼스널
pyr
하부측
항만
반도체소자
##ury
EtOH
축전
##rite
햇
처리실
에코
십자
요철부
breast
디퓨
let
experiments
방광
교번
기사
슬리
##Me
부설
##알데하이드
Non
합류
수밀
OA
Exper
followed
record
##프레그
perm
페이로드
뇌졸중
##rier
POS
Rd
##돌출부
##imed
##옥틸
원치
##로이
##ocation
요망
작동부
##흡착
maintain
compounds
코덱
abs
오물
광센서
니트로기
##디움
대항
내충격
냉각팬
배리
##위치결제정보
corre
델타
##acryl
Methods
천이
디스플레이장치
프리차지
FBS
홍수
But
주유
##턴트
중공사
마감재
##불량
부산
느리
OB
224
##표준
측위
아토피
##터치
림프종
아니한다
Section
세정제
찌꺼기
agg
확실히
RMS
이룬다
밸런
003
##학습
대물렌즈
바스켓
##TG
Comparison
##ohn
dynamic
##관체
자유도
##ibration
수직부
기온
패시
이동도
##에도
##berg
fixed
##싱크
옥탄
크랭크축
착화
EGFR
원기둥
시추
비소
취한
수액
CCT
NE
require
합의
fa
##aken
왜냐하면
펨토
##려서
TGF
카르바메이트
##클립
305
대수
감산
##고루
하룻
밀봉부
thickness
셀프
##eg
티로신
가리킨다
areas
##줄기
status
##리톨
풍미
might
Study
valid
540
software
##베이션
부동산
International
##tein
꼬리
머캅토
##OB
OUT
트레이스
이동상
골고루
형성부
##광고정보
트리플루오로아세트산
커버부재
##카라이드
탈거
귀금속
투명전극
MU
고정체
농축물
다수의
롬
는다고
커널
치료법
매달
SIP
평상
고순
phosphate
405
245
선량
심박
접이식
##asm
방류
Mean
plasma
##ygen
##개구
색인
작동유체
올라가
##타리
제출
##확률
퀴놀리닐
절단부
##ymph
##선관
pip
프리프레그
모르폴리노

##의료
RM
소비전력
트래킹
바나듐
4000
웨지
##포머
대조적
시리얼
그렇게
Fi
가솔린
잔디
인물
냉각제
##71
축부
Journal
풍향
루테늄
##GE
히알루
##나프탈렌
##텍터
infection
굳
##rown
##보건
양념
농축액
매스
##lished
상동성
근래
링기어
##정부
##전도성
교시
라세미
클리어
skin
엔코더
용리액
봄
Moreover
드리
early
원천
##yte
경력
이야
DMEM
생쥐
취지
##카르바모일
협동
ANOVA
본발명
IX
근로자
##66
##피롤리딘
##bit
엔도
corresponding
http
glucose
green
플러스
pair
rates
접촉각
Americ
joint
수평균
##lement
fabric
molecular
피리미디닐
determine
소견
##볼락
부분입체
화장실
가황
소아
prepared
원거리
##융점
##페어
rh
##진기
부서
##vis
available
##ids
올바른
품목
단의
카바모일
##용품
investigated
느린
나중
##상선
##실린
진공펌프
##ulating
실리콘막
카르보네이트
하룻밤
213
진균
nodes
##세서리
광산
##73
이고
랫
my
##iding
family
lact
분별
부양
냉동기
Design
##램블
##나라
171
아미노메틸
타공
함몰부
NB
제주
재하
이뤄
언로딩
every
WLAN
정격
미설명
##대차
테크
염려
적재함
##UN
포커싱
##bi
콘솔
DATA
넓이
##록사이드
억세스
##드라이
amino
락트산
variation
스트레
셋업
펴
차측
##몰드
root
##쥬게이트
VA
bal
##로리
접선
사과
바이페닐
##ighest
##붕소
difficult
못했
##기닌
색채
##미생물
박테리
mp
드론
다수의광고정보
드롭
견딜
미려
폴리비닐알코올
요하
broad
concept
Del
중합효소
포토리소
회동축
입사광
원자력
결장
털
##워킹
다리부
cluster
025
##상도
##urac
입력장치
육류
TO
##ivation
벤조티아졸
부수
PDCCH
피부염
온도차
Hf
테트라하이드로푸란
##me
decrease
선발
두드
included
다용
##pat
##플렉스
향료
진하
internal
치료학
##시네이트
최하
run
##therm
암반
##ogene
HARQ
트레일
##23
가려
ground
유황
직관
##크로마토
대식
height
##iguration
원반
Fur
플롯
CU
그래프트
연비
BF
토치
##kin
제목
예산
Multi
이더
유지부
하이브리
러버
##가이
With
163
비추
디렉토리
디클로로페닐
##축합
빠져나가
##모세포
에피택셜
법률
plane
긁
범죄
우편
로커
애완
##ertical
작업대
##ensis
성형기
##istration
##배수
대변
포토마스크
얀
##kg
##도전
선진
##URE
User
##분할
Material
체결홈
잡아
Boc
sccm
프레임부
##iff
피브
세정수
DPPH
개봉
##이음
530
##토산
산림
##rea
발목
vitro
합병증
powder
직진
분압
mixture
##대학
##ender
bott
##PT
부문
금속산화물
##타디에닐
어큐
독립변수
봉제
loop
substrate
표시기
detected
센싱부
자가면역
메틸티오
인터넷뱅킹정보
##ycin
뉴클레오
##ellow
저항기
Zh
##ulin
Vi
투수
carried
벌어지
features
수심
##ands
caused
노닐
##절감
IG
Hum
조리실
metab
##rose
recogn
py
피더
아르알킬
힌지결합
하이드록시에틸
샤시
##데이타
혈류
전극판
Nd
이더넷
188
Off
##pled
"-
증점제
설폰산
유비
전력선
전륜
멜라닌
word
##상기
GW
금속재
일으킬
샷
1986
침수
감수
감지신호
골조
취소
허혈
reduce
아크릴로일
##ras
##ether
promot
##bar
Hu
단문
##복합
돌아
리모트
##Se
접속단자
First
카르복시산
포르밀
##보관
room
답변
ow
회분
##행렬
불법
기계식
##벤조일
체결수단
러그
BSA
켄칭
담긴
her
##use
indicated
admin
수작업
공급기
영양소
VoIP
get
걸림편
자금
정산
##녹살
일일
협지
산성화
이야기
##플러그
글루타민
레티클
Bec
흘러내
티아디아졸
기준선
후방측
각질
Os
##투자
변속단
location
##ibr
규산
가벼운
차압
풋
리액
접철
##cohol
노즐부
트랜시버
지지력
construct
GD
##angu
heter
전자식
##ructural
노후
##ople
기도
비장
커브
##work
##라마
##posure
쓰이
플루오라이드
##ening
##요금
RX
피페리
리미트
가볍
내진
액정표시패널
cover
모색
관계식
릴리프
선부
370
신속히
집열
참가자
슈트
##실리케이트
##복지
VM
um
보일
셀레
##무스
배분
activation
콤팩트
제거장치
종횡
피처
지대
가공물
how
샌드위치
##iques
##pid
dL
frequ
혈전
improve
##걸림
피착
저전력
플루오레닐
그리하여
청취
##ched
motion
숨
원액
##환전정보
##overn
##분열
problems
알레르기
tol
##할로
비가
##터클
TiN
진한
estimated
Cy
설포
gain
전위차
방충
##나이드
저분자량
트레이닝
##장소
##마커
닦
##검출부
##88
석재
highest
다중화
pix
턴테이블
make
했으며
셀라이트
GE
HLA
cause
인터넷외환
재킷
Tem
##orth
216
##단량체
##혜택
##라노
##블랙
미관
스폰지
##인팅
하부전극
FPC
##말뚝
눌려
지오
velocity
IGF
용착
HCV
가해진
##프탈산
인터넷외환환전정보
경매
##바실러스
의의
윗면
conventional
##나프
##inate
버클
연간
##컨베이어
##aced
Management
스트레인
along
311
mV
##poration
Mar
양파
반감기
iss
detail
내수
제조사
모방
작동기
부유물
우울증
넨
마일
##용지
후기
해결책
series
도금액
가역
Develop
lab
전원선
Dec
Equ
몰탈
중앙처리장치
격실
prior
저주파
운전석
장축
과장
원고
벤조이미다졸
콜리
원통형상
greater
015
##로우즈
##향상
통기성
##오르
##ba
준하
##hell
쿼리
kgf
이동한
부틸렌
반투명
around
워터마크
오토클
여겨진다
##먼지
헬륨
contrast
욕조
##roc
##oxyl
시프
injection
마루
광로
테두리부
##net
메트릭
overall
모우
##SM
폭기
팜
양수
Trp
출혈
체액
남녀
##akes
주요부
체온
Mark
mT
마치
##acch
##uracy
##ica
fill
확인부
스커트
reli
##밤산
땀
##VE
##발열
acetate
동위원소
1985
미토
쑥
송전
##분배
탕
receptor
Step
##절단
수신측
복굴절
티타
axis
##머리
kit
##양성
Circ
##osa
신호처리
맨드
MRI
파트너
criter
##웨이브
채소
suggested
트랜스미션
침식
morph
코로
허니
토끼
고해상도
##FA
transport
machine
##iae
##폴리실록산
##잡음
##cg
subjects
##라고
##HT
벗겨
##ront
검체
비스듬
##보험
분해사
##온시
보트
열쇠
연소기
wav
depend
보울
사선
##tual
아랫
##ecially
하수관
프라
코아
159
##Fv
610
##ds
fir
Biochem
키나아제
추측
바다
헌
사다리꼴
optimal
캐비넷
##77
Up
카페
크라운
원통부
명료
짜
##픽셀
콜렉터
Cyc
탈지
##not
provided
코르
탄산나트륨
Phot
##이상
기어박스
하우스
쉴드
##idase
주변단말기
##운영
##레이팅
유량계
리셉터클
Ident
마그넷
##PR
디부틸
##렉션
저역
교차점
색깔
만니
역가
least
Read
퀀
interaction
##랜스
뇌파
카르복시메틸
##ographic
지장
상징
님
cust
클럭신호
계합
##절기
전역
셔틀
##코프
influence
처리방법
Not
사실상
interface
hole
##원판
전압값
주어지
##amber
spectrum
adjust
퀴녹살
잡아당
투과도
##디이미드
공시
보강판
Pos
저장고
ing
thus
가이
문구
##아지
자장
타이틀
##가이샤
이끌
자식
공고
부가세
매연
Organic
일직선
원재료
sch
솔레노이드밸브
제동력
gate
풍량
계산부
氣
데스크
##배열
UTR
##알릴
regression
bond
##전하
##보일러
방열핀
called
Internet
끝나
청결
단기
공차
##반응기
둔다
서브세트
##네일
방호
##린지
##조명
##관통
ECC
aS
분극
produced
PID
Standard
복잡도
매수
적혈구
나눌
전착
PTFE
##아세트아미드
결상
segment
공원
불연속
##istor
thin
play
simple
##기적
계란
중추
##alle
테트라하이드
Open
공기량
심재
169
##디늄
##분리기
NMP
지의
최상부
Theorem
곱하
mo
결제수단
##시켜서
##ither
디에틸렌글리콜
수전
Tx
튼
950
UN
아제티딘
알콕
플레
주차장
직무만족
부채
review
GPP
nd
리신
shift
우리나라
RES
##정기
##리스터
##pe
##린산
밟
날씨
음식물쓰레기
##소켓
잃
호흡기
커질
pen
밸러스트
lines
얼룩
PAGE
threshold
팽창밸브
벽부
##itional
가늘
재와
Po
ear
합착
ORF
즉각
비휘발
modified
캘리브
배달
however
긴밀
온도조절
권장
##ective
stability
##저온
##순서
##elet
relatively
CoA
##목록
사판
##비아
Interface
행했
내향
부화소
Institute
NI
근적외선
##커넥터
반사기
Bacillus
##믹스
325
##clusion
열람
오퍼레이터
##asis
derived
Germany
우레이
ability
벗어난
##크림
five
소자분리
##omes
물통
coating
PMMA
보레이트
현미
구동전압
312
펄스폭

##,
##이
##의
##는
##에
##하
##.
##기
##로
##다
##e
##을
##상
##한
##a
##1
##t
##를
##i
##수
##도
##서
##시
##가
##제
##n
##o
##지
##부
##2
##r
##-
##어
##s
##0
##고
##성
##으
##있
##되
##)
##정
##(
##스
##은
##l
##리
##된
##용
##전
##c
##m
##사
##구
##트
##d
##여
##3
##적
##인
##치
##과
##조
##해
##자
##면
##단
##h
##터
##형
##5
##위
##C
##동
##나
##화
##장
##4
##대
##체
##및
##보
##일
##방
##유
##발
##와
##라
##공
##u
##p
##소
##g
##물
##실
##분
##드
##내
##또
##포
##것
##들
##함
##합
##명
##비
##결
##본
##아
##게
##중
##예
##그
##할
##f
##연
##프
##S
##6
##계
##레
##A
##경
##신
##재
##각
##산
##출
##개
##통
##바
##관
##미
##모
##록
##간
##선
##크
##세
##반
##우
##P
##y
##H
##T
##7
##b
##R
##호
##따
##입
##8
##설
##M
##측
##원
##생
##타
##9
##주
##D
##I
##력
##며
##N
##진
##특
##메
##디
##식
##질
##:
##량
##러
##직
##배
##표
##판
##향
##항
##작
##안
##O
##속
##오
##법
##회
##차
##른
##L
##환
##플
##E
##데
##열
##같
##태
##w
##거
##요
##등
##였
##능
##양
##v
##변
##저
##피
##영
##마
##광
##압
##F
##접
##틸
##;
##될
##후
##파
##노
##행
##키
##루
##알
##테
##브
##/
##B
##문
##착
##층
##역
##음
##만
##%
##응
##액
##료
##증
##온
##점
##교
##더
##절
##외
##버
##필
##매
##복
##축
##감
##히
##르
##때
##클
##종
##임
##G
##징
##코
##래
##학
##않
##페
##송
##류
##카
##처
##급
##탄
##패
##현
##무
##금
##술
##약
##추
##니
##람
##닐
##강
##V
##었
##효
##k
##링
##평
##토
##티
##블
##석
##운
##택
##두
##업
##극
##말
##건
##당
##x
##확
##템
##막
##활
##편
##폴
##갖
##검
##초
##염
##킬
##"
##커
##품
##릴
##렌
##별
##목
##투
##써
##준
##립
##[
##]
##혼
##U
##율
##격
##최
##값
##달
##색
##린
##°
##케
##높
##불
##충
##널
##심
##균
##=
##z
##야
##름
##국
##냉
##존
##워
##네
##험
##퍼
##청
##밀
##컨
##돌
##촉
##K
##참
##센
##션
##번
##순
##콘
##베
##W
##려
##범
##없
##백
##첨
##올
##근
##련
##집
##'
##흡
##롤
##너
##팅
##림
##옥
##께
##폐
##슬
##폭
##채
##므
##낸
##X
##즈
##머
##얻
##즉
##램
##벤
##탈
##랜
##켜
##+
##암
##박
##받
##허
##쇄
##셀
##독
##턴
##완
##농
##침
##홈
##길
##삽
##손
##밸
##까
##취
##벽
##듈
##킨
##민
##느
##헤
##글
##볼
##J
##핀
##~
##딩
##족
##칭
##론
##엔
##득
##홀
##닛
##군
##승
##좌
##란
##걸
##황
##져
##μ
##습
##캐
##Y
##웨
##병
##q
##칼
##졸
##규
##럼
##천
##략
##쪽
##컴
##많
##벨
##딘
##콜
##억
##난
##텐
##융
##낮
##봉
##섬
##육
##톡
##든
##혈
##∼
##늄
##곡
##언
##싱
##년
##창
##울
##퓨
##됨
##획
##애
##움
##살
##먼
##철
##몸
##했
##척
##몰
##권
##망
##잔
##줄
##Q
##Z
##날
##째
##누
##욱
##찰
##펜
##흐
##륨
##룹
##령
##락
##핑
##{
##골
##}
##톤
##잡
##담
##폰
##헥
##츠
##논
##쳐
##끼
##률
##풍
##펌
##j
##맞
##탁
##새
##객
##았
##앙
##큰
##닥
##킹
##_
##뿐
##렬
##픽
##델
##둘
##멍
##챔
##휴
##답
##놀
##악
##튜
##켰
##켓
##컬
##*
##·
##캡
##쌍
##총
##굴
##런
##릭
##즐
##탱
##녹
##빈
##샘
##뉴
##멀
##월
##친
##례
##견
##납
##킷
##휘
##못
##남
##<
##좋
##닌
##핵
##털
##던
##쉬
##났
##럭
##푸
##닝
##틀
##α
##펩
##빔
##솔
##칩
##쉽
##×
##얼
##힘
##퀴
##덮
##샤
##잉
##풀
##앞
##넷
##펄
##슘
##삼
##랙
##희
##갈
##힌
##즘
##킴
##촬
##틱
##혹
##숙
##끝
##겐
##셋
##틴
##헌
##벡
##엘
##믹
##밍
##긴
##튼
##탑
##잠
##몇
##콕
##귀
##렉
##팬
##탐
##책
##웹
##섭
##톨
##팽
##릿
##윤
##잘
##삭
##±
##β
##롯
##맥
##짐
##멘
##핸
##넣
##뢰
##념
##싸
##넥
##겔
##텍
##룰
##겨
##협
##혀
##>
##덕
##떨
##빠
##빛
##탕
##’
##렇
##펴
##큼
##팔
##턱
##펙
##찬
##젠
##벌
##셔
##횡
##뒤
##늘
##밴
##쓰
##익
##셈
##깊
##빙
##젝
##봇
##덴
##둥
##놓
##웃
##휠
##δ
##쿠
##넓
##텝
##랩
##벗
##퇴
##캔
##김
##첩
##듐
##캠
##폼
##첫
##졌
##떤
##슐
##괴
##눈
##럽
##팩
##칸
##펠
##「
##」
##칙
##튬
##톱
##덱
##밝
##‘
##섹
##롭
##≤
##딜
##롬
##윈
##랭
##쇠
##곳
##붕
##씨
##뮬
##곤
##슈
##랫
##뚜
##펀
##떠
##큐
##짧
##밖
##넌
##씩
##멸
###
##뇌
##멤
##겟
##텔
##넘
##칠
##댐
##닫
##맨
##낙
##왔
##북
##젤
##흑
##−
##퀀
##맵
##욕
##쇼
##웰
##홍
##낼
##뷰
##껑
##몬
##엑
##팀
##찾
##왕
##뱅
##읽
##춤
##돈
##궤
##륜
##끄
##렵
##멜
##ᆞ
##“
##듀
##켈
##”
##앵
##넬
##뇨
##꺼
##갱
##θ
##얇
##렛
##붙
##좀
##숫
##쟁
##횟
##헵
##빌
##죽
##γ
##&
##곱
##밤
##듯
##깨
##좁
##갑
##→
##잎
##랄
##갭
##컵
##눌
##셜
##밑
##곽
##엽
##냄
##탭
##츄
##젼
##Δ
##둔
##맷
##맛
##덤
##겹
##흔
##렴
##λ
##팁
##훈
##헬
##랑
##왜
##섯
##냈
##띠
##십
##콤
##뮤
##굽
##컷
##꾸
##닿
##긍
##흘
##빗
##뒷
##춘
##혁
##′
##쌀
##엠
##맹
##븐
##뛰
##엄
##쉘
##낭
##빨
##겸
##잭
##틈
##끈
##툴
##옵
##묘
##괄
##깥
##궁
##꽃
##럿
##앰
##먹
##줌
##녀
##～
##깔
##Å
##텅
##콩
##럴
##늬
##닉
##삶
##|
##?
##젯
##∈
##룸
##쥐
##뜨
##픈
##뼈
##흥
##셉
##윙
##밥
##뿌
##※
##®
##칫
##끌
##짝
##찌
##씬
##슷
##슨
##앱
##젖
##꼬
##낚
##캅
##댑
##룩
##겠
##–
##쿨
##왁
##캘
##벼
##춰
##땜
##훨
##텀
##핫
##껍
##왼
##펼
##엇
##흙
##멈
##뚝
##떻
##윗
##돕
##옮
##탠
##\
##덜
##놈
##꼭
##휨
##φ
##≥
##깃
##랍
##즙
##쿼
##켄
##덩
##짜
##듬
##Ω
##쾌
##ε
##△
##돼
##옹
##―
##옷
##룬
##잇
##앤
##흰
##뜻
##섞
##옆
##췌
##σ
##벳
##탬
##귤
##빼
##엣
##^
##님
##ω
##뎀
##덧
##씰
##쥬
##핍
##긋
##혜
##쌓
##샌
##렐
##숯
##렙
##흉
##붐
##뿔
##촌
##냅
##뚫
##끗
##묻
##뻗
##힐
##튀
##묶
##렁
##끊
##냐
##『
##』
##앉
##@
##짓
##웜
##솜
##헹
##돔
##氣
##쐐
##η
##겪
##굵
##π
##곧
##겉
##풋
##봄
##○
##갯
##폿
##깅
##혐
##싼
##τ
##꼴
##빵
##
##
##솥
##헐
##팡
##떡
##
##섀
##뭉
##씌
##롱
##엉
##곰
##죄
##끓
##ρ
##깝
##붓
##빅
##넨
##렷
##닭
##닙
##웠
##쉐
##ᄃ
##κ
##〔
##〕
##뮴
##릎
##뀌
##슴
##
##딪
##펫
##딱
##굼
##떼
##훼
##꽂
##쉴
##맙
##렸
##낌
##
##쥴
##∗
##띄
##Φ
##늦
##캄
##햅
##묵
##꿈
##샷
##쑥
##딥
##챠
##큘
##
##〈
##∙
##땅
##륙
##꿀
##팜
##끔
##훅
##싶
##씻
##펨
##
##●
##〉
##앨
##水
##얹
##숨
##얀
##部
##팝
##숭
##뉘
##듭
##맺
##̊
##앗
##찍
##갓
##옴
##
##싯
##뉼
##뤄
##쏘
##性
##ᄀ
##핏
##팟
##룻
##홉
##볍
##・
##햇
##땀
##쳤
##
##닦
##굳
##面
##겼
##熱
##찜
##멧
##긁
##뜸
##中
##젓
##밧
##볶
##∞
##렀
##經
##돗
##둑
##⋅
##붉
##쓸
##퀘
##밟
##잃
##죠
##낄
##븀
##넛
##꺾
##딤
##方
##ν
##혔
##셸
##湯
##괘
##∆
##햄
##뽑
##
##딸
##짚
##化
##­
##믿
##`
##
##흠
##陽
##血
##숄
##病
##쁜
##χ
##밭
##똑
##陰
##옐
##닷
##大
##≡
##셰
##ξ
##∘
##숏
##찢
##
##걷
##$
##얕
##둠
##
##랐
##쓴
##之
##쯔
##不
##́
##듣
##上
##킵
##下
##멕
##눔
##앓
##뽕
##쇽
##댓
##ψ
##웅
##펑
##生
##心
##子
##샴
##Γ
##맑
##
##겁
##뭄
##體
##퉁
##
##뺀
##
##릇
##잦
##낱
##뾰
##法
##썸
##□
##쁘
##人
##寒
##퀄
##엿
##썹
##!
##黃
##찹
##
##內
##갤
##웍
##證
##
##꺽
##꿔
##벅
##虛
##醫
##一
##分
##젊
##ᄂ
##밋
##形
##
##藥
##狀
##깎
##風
##
##싹
##갔
##됐
##폽
##脈
##
##
##몽
##묽
##
##
##걱
##社
##퀸
##端
##꾀
##휀
##옻
##숲
##껴
##댄
##•
##
##즌
##볏
##
##뱃
##
##릉
##∩
##컸
##냥
##的
##Σ
##
##얽
##팸
##地
##뎁
##前
##헨
##用
##딕
##녕
##
##탯
##흄
##≠
##
##三
##쵸
##加
##本
##쏠
##外
##푼
##퓸
##눕
##쳄
##動
##
##合
##
##∥
##學
##팰
##
##챙
##五
